[PAD]	0
[UNK]	0
[BOS]	0
[EOS]	0
[SEP]	0
[CLS]	0
[MASK]	0
▁t	-0
▁a	-1
he	-2
in	-3
on	-4
re	-5
▁the	-6
er	-7
at	-8
▁s	-9
▁w	-10
en	-11
▁o	-12
▁c	-13
is	-14
an	-15
or	-16
it	-17
▁p	-18
ed	-19
es	-20
▁b	-21
ing	-22
▁f	-23
al	-24
▁to	-25
ar	-26
ou	-27
▁an	-28
▁in	-29
▁of	-30
ic	-31
▁h	-32
▁m	-33
▁th	-34
▁d	-35
as	-36
▁and	-37
le	-38
ion	-39
om	-40
ent	-41
id	-42
▁T	-43
il	-44
▁n	-45
▁e	-46
▁re	-47
ot	-48
ve	-49
st	-50
ly	-51
▁l	-52
▁be	-53
▁that	-54
▁C	-55
ut	-56
▁S	-57
▁g	-58
ol	-59
ig	-60
ct	-61
▁A	-62
▁I	-63
▁is	-64
▁on	-65
ow	-66
se	-67
im	-68
am	-69
▁for	-70
ay	-71
▁he	-72
ad	-73
ver	-74
ce	-75
ur	-76
▁wh	-77
ation	-78
▁st	-79
ru	-80
ill	-81
ro	-82
et	-83
ate	-84
▁u	-85
ers	-86
▁B	-87
ld	-88
ir	-89
ac	-90
▁it	-91
▁H	-92
▁R	-93
▁as	-94
▁M	-95
▁we	-96
ith	-97
res	-98
▁The	-99
▁con	-100
▁de	-101
▁“	-102
▁W	-103
▁P	-104
nd	-105
▁with	-106
ll	-107
▁D	-108
and	-109
ter	-110
▁y	-111
ment	-112
ra	-113
us	-114
mp	-115
▁v	-116
est	-117
ist	-118
▁ha	-119
ke	-120
▁at	-121
ri	-122
ch	-123
pp	-124
ort	-125
▁was	-126
her	-127
▁F	-128
op	-129
▁are	-130
int	-131
ge	-132
ore	-133
ul	-134
ew	-135
▁not	-136
if	-137
▁N	-138
art	-139
ould	-140
▁O	-141
oc	-142
▁sa	-143
▁se	-144
▁have	-145
rom	-146
▁su	-147
ht	-148
▁by	-149
▁has	-150
rump	-151
em	-152
▁Trump	-153
ep	-154
out	-155
ity	-156
▁com	-157
ial	-158
▁said	-159
▁his	-160
▁pro	-161
nt	-162
ive	-163
▁ex	-164
▁2	-165
os	-166
ess	-167
▁U	-168
ican	-169
▁r	-170
▁le	-171
ain	-172
▁from	-173
ub	-174
▁"	-175
▁ab	-176
ary	-177
▁you	-178
▁al	-179
▁this	-180
▁who	-181
▁Cl	-182
▁G	-183
ight	-184
▁or	-185
▁sh	-186
▁pol	-187
ant	-188
mer	-189
▁go	-190
ack	-191
inton	-192
ab	-193
end	-194
ies	-195
▁J	-196
pe	-197
▁Clinton	-198
red	-199
ign	-200
od	-201
▁ch	-202
all	-203
iv	-204
ear	-205
▁they	-206
▁j	-207
ident	-208
ak	-209
ome	-210
th	-211
▁E	-212
ost	-213
ust	-214
qu	-215
▁will	-216
ction	-217
ast	-218
▁1	-219
ubl	-220
ong	-221
el	-222
▁L	-223
▁do	-224
▁20	-225
ia	-226
rou	-227
ical	-228
▁whe	-229
▁wor	-230
ud	-231
▁about	-232
▁ag	-233
ates	-234
un	-235
▁pres	-236
our	-237
▁all	-238
▁their	-239
ich	-240
ther	-241
▁ne	-242
ie	-243
▁would	-244
▁out	-245
pa	-246
ice	-247
ber	-248
▁int	-249
▁(	-250
▁k	-251
▁Th	-252
▁ad	-253
ide	-254
ous	-255
ard	-256
ian	-257
ry	-258
▁pe	-259
▁but	-260
um	-261
▁St	-262
▁more	-263
iz	-264
.”	-265
▁off	-266
ff	-267
gh	-268
ople	-269
one	-270
▁li	-271
▁In	-272
▁her	-273
▁cont	-274
▁Amer	-275
▁been	-276
▁can	-277
ok	-278
▁pl	-279
▁vot	-280
▁un	-281
ine	-282
ated	-283
▁cam	-284
ally	-285
▁Rep	-286
▁part	-287
▁people	-288
au	-289
ag	-290
▁ev	-291
▁im	-292
cc	-293
ount	-294
▁up	-295
▁were	-296
ail	-297
▁cl	-298
ose	-299
▁K	-300
▁had	-301
ite	-302
▁one	-303
ress	-304
very	-305
ime	-306
ake	-307
▁over	-308
age	-309
ap	-310
▁Republ	-311
▁me	-312
ure	-313
rat	-314
ire	-315
▁she	-316
port	-317
..	-318
▁201	-319
▁res	-320
ence	-321
ions	-322
▁Republican	-323
day	-324
▁man	-325
▁per	-326
▁pr	-327
,”	-328
▁which	-329
▁say	-330
pl	-331
cl	-332
ations	-333
▁dis	-334
▁what	-335
are	-336
▁other	-337
▁Ob	-338
ass	-339
▁so	-340
▁bec	-341
ord	-342
ama	-343
▁president	-344
▁like	-345
ran	-346
▁—	-347
▁than	-348
▁year	-349
▁en	-350
▁He	-351
ind	-352
paign	-353
so	-354
▁ele	-355
cent	-356
hing	-357
▁campaign	-358
▁But	-359
00	-360
▁Obama	-361
own	-362
per	-363
▁supp	-364
ile	-365
▁them	-366
▁att	-367
▁Ch	-368
fter	-369
▁any	-370
con	-371
▁there	-372
▁It	-373
▁us	-374
ect	-375
▁also	-376
▁just	-377
▁our	-378
ocrat	-379
▁some	-380
ib	-381
ip	-382
▁American	-383
▁polit	-384
▁no	-385
vern	-386
ult	-387
▁Dem	-388
pt	-389
▁when	-390
▁Y	-391
▁state	-392
▁if	-393
▁fa	-394
og	-395
ere	-396
▁new	-397
▁app	-398
▁Hill	-399
▁qu	-400
aw	-401
▁ar	-402
▁Democrat	-403
ook	-404
ict	-405
ks	-406
▁him	-407
able	-408
▁Wh	-409
▁kn	-410
ree	-411
▁New	-412
."	-413
,"	-414
ame	-415
▁sp	-416
ause	-417
ue	-418
▁count	-419
▁Hillary	-420
▁cons	-421
ell	-422
▁again	-423
ors	-424
for	-425
▁could	-426
▁its	-427
▁govern	-428
oll	-429
uss	-430
▁cr	-431
▁into	-432
▁tw	-433
reat	-434
ove	-435
▁acc	-436
ious	-437
ob	-438
erv	-439
king	-440
ens	-441
▁after	-442
cre	-443
itt	-444
▁support	-445
ase	-446
old	-447
▁V	-448
▁And	-449
▁ru	-450
ance	-451
▁spe	-452
▁get	-453
nder	-454
▁Un	-455
uc	-456
▁time	-457
ning	-458
▁inv	-459
andid	-460
ory	-461
ational	-462
ade	-463
▁candid	-464
▁bl	-465
ound	-466
irst	-467
ition	-468
▁pre	-469
ish	-470
▁how	-471
onal	-472
▁ra	-473
ne	-474
▁even	-475
▁comm	-476
▁report	-477
▁am	-478
▁did	-479
▁most	-480
▁comp	-481
ited	-482
▁As	-483
hed	-484
▁lead	-485
ace	-486
▁only	-487
av	-488
▁–	-489
ked	-490
▁election	-491
▁em	-492
ings	-493
ues	-494
ans	-495
▁now	-496
oint	-497
▁-	-498
ces	-499
▁because	-500
▁government	-501
▁back	-502
▁war	-503
▁two	-504
ouse	-505
▁under	-506
sel	-507
▁act	-508
vers	-509
▁don	-510
▁bet	-511
ism	-512
und	-513
ink	-514
▁offic	-515
▁political	-516
ative	-517
eral	-518
ays	-519
▁call	-520
ough	-521
▁right	-522
▁law	-523
ach	-524
▁sc	-525
man	-526
▁inter	-527
▁many	-528
▁against	-529
▁te	-530
ons	-531
▁know	-532
form	-533
▁ter	-534
ov	-535
▁want	-536
▁Russ	-537
▁those	-538
▁years	-539
The	-540
fore	-541
▁first	-542
ments	-543
▁dec	-544
▁This	-545
▁ind	-546
▁Is	-547
iew	-548
ged	-549
▁percent	-550
clud	-551
▁grou	-552
▁pos	-553
we	-554
▁US	-555
uch	-556
▁We	-557
pect	-558
ild	-559
▁every	-560
▁your	-561
li	-562
▁publ	-563
resident	-564
ics	-565
vel	-566
▁bel	-567
lear	-568
io	-569
ned	-570
ists	-571
▁going	-572
onald	-573
aking	-574
▁rec	-575
ower	-576
▁see	-577
other	-578
ents	-579
ise	-580
▁need	-581
ful	-582
ilit	-583
ica	-584
▁tr	-585
ick	-586
▁country	-587
▁rem	-588
▁add	-589
▁19	-590
▁rel	-591
▁co	-592
▁Sand	-593
▁def	-594
▁House	-595
▁med	-596
▁wee	-597
▁Sen	-598
▁President	-599
▁end	-600
wn	-601
▁reg	-602
▁where	-603
ec	-604
▁should	-605
ied	-606
▁my	-607
▁mar	-608
ren	-609
ration	-610
iss	-611
▁these	-612
ating	-613
ood	-614
als	-615
▁does	-616
▁being	-617
▁may	-618
▁wr	-619
fere	-620
▁last	-621
▁way	-622
▁think	-623
rib	-624
▁deb	-625
▁Sanders	-626
▁world	-627
▁des	-628
▁make	-629
ives	-630
▁before	-631
ft	-632
uring	-633
ange	-634
▁iss	-635
▁3	-636
▁--	-637
▁attack	-638
▁includ	-639
illion	-640
leg	-641
▁presidential	-642
enc	-643
...	-644
▁told	-645
ince	-646
ps	-647
▁Donald	-648
ath	-649
▁very	-650
▁show	-651
▁much	-652
ush	-653
▁polic	-654
ang	-655
uth	-656
oun	-657
▁win	-658
rough	-659
▁point	-660
oth	-661
ention	-662
▁ac	-663
oy	-664
▁nom	-665
riv	-666
▁long	-667
act	-668
get	-669
min	-670
▁pers	-671
igh	-672
▁2016	-673
▁voters	-674
ton	-675
ities	-676
ater	-677
led	-678
hn	-679
▁ma	-680
ght	-681
▁str	-682
▁party	-683
les	-684
▁Democratic	-685
▁.	-686
▁gr	-687
ex	-688
▁email	-689
ond	-690
▁work	-691
▁invest	-692
cial	-693
▁belie	-694
▁public	-695
▁mon	-696
ution	-697
▁official	-698
▁down	-699
▁Republicans	-700
ork	-701
▁through	-702
▁Re	-703
▁then	-704
▁America	-705
ting	-706
conom	-707
▁prob	-708
▁poll	-709
ern	-710
ible	-711
▁ass	-712
▁eff	-713
▁ke	-714
▁well	-715
yst	-716
▁ins	-717
▁Jo	-718
▁ro	-719
▁$	-720
▁sur	-721
▁That	-722
ased	-723
▁United	-724
imes	-725
▁made	-726
▁opp	-727
ope	-728
▁hel	-729
▁look	-730
round	-731
ts	-732
ced	-733
▁while	-734
ily	-735
alth	-736
▁milit	-737
ee	-738
▁prot	-739
ual	-740
▁real	-741
▁wom	-742
ror	-743
▁State	-744
▁ent	-745
▁own	-746
ont	-747
▁fin	-748
▁They	-749
▁run	-750
▁media	-751
▁vote	-752
gan	-753
▁ear	-754
▁take	-755
▁dif	-756
▁such	-757
ward	-758
ady	-759
▁fact	-760
▁week	-761
tern	-762
hen	-763
▁quest	-764
cret	-765
ording	-766
ars	-767
▁same	-768
▁Sy	-769
▁candidate	-770
ven	-771
▁4	-772
self	-773
▁imm	-774
ility	-775
▁gen	-776
▁former	-777
com	-778
▁200	-779
jor	-780
▁conf	-781
▁cour	-782
▁econom	-783
▁,	-784
ert	-785
▁leg	-786
ween	-787
ah	-788
▁States	-789
ually	-790
▁br	-791
▁says	-792
▁Cru	-793
▁states	-794
ular	-795
▁dem	-796
▁Bush	-797
ife	-798
▁ob	-799
▁sign	-800
▁between	-801
▁Syri	-802
▁For	-803
▁both	-804
ashing	-805
▁help	-806
▁Cruz	-807
▁cor	-808
▁ser	-809
ized	-810
▁exp	-811
up	-812
▁If	-813
▁tal	-814
▁fl	-815
▁still	-816
ered	-817
OP	-818
ram	-819
▁adv	-820
hip	-821
ense	-822
ms	-823
▁5	-824
gg	-825
its	-826
▁contin	-827
▁power	-828
▁ref	-829
▁Americans	-830
▁bu	-831
▁mem	-832
ctor	-833
ty	-834
▁fe	-835
ax	-836
▁plan	-837
▁sub	-838
▁‘	-839
xt	-840
ina	-841
ystem	-842
▁Iran	-843
▁John	-844
du	-845
▁month	-846
att	-847
▁fam	-848
▁big	-849
▁resp	-850
urn	-851
▁happ	-852
cess	-853
▁op	-854
▁[	-855
▁since	-856
bers	-857
▁during	-858
▁prov	-859
ashington	-860
▁GOP	-861
urity	-862
ands	-863
▁here	-864
aim	-865
▁tra	-866
way	-867
▁recent	-868
▁policy	-869
▁investig	-870
▁contr	-871
▁Democrats	-872
▁major	-873
omet	-874
ically	-875
▁Com	-876
ision	-877
▁disc	-878
ject	-879
ongress	-880
▁Washington	-881
rem	-882
▁Russia	-883
▁Mar	-884
view	-885
ians	-886
▁col	-887
ollow	-888
ef	-889
▁fore	-890
ever	-891
olog	-892
ner	-893
▁far	-894
ants	-895
stit	-896
▁day	-897
▁system	-898
▁Congress	-899
▁ph	-900
ple	-901
acy	-902
▁ext	-903
ave	-904
ather	-905
ency	-906
ctions	-907
▁White	-908
▁police	-909
▁prog	-910
▁terror	-911
▁good	-912
▁On	-913
▁prim	-914
ss	-915
000	-916
▁sim	-917
cept	-918
▁soc	-919
We	-920
▁min	-921
▁rep	-922
▁Chr	-923
the	-924
artment	-925
▁She	-926
▁military	-927
▁el	-928
▁news	-929
▁high	-930
▁found	-931
▁never	-932
▁ide	-933
▁num	-934
▁dire	-935
BI	-936
▁put	-937
uthor	-938
▁An	-939
▁debate	-940
▁another	-941
air	-942
ox	-943
▁lar	-944
▁Al	-945
▁conserv	-946
▁There	-947
,000	-948
ines	-949
ling	-950
▁claim	-951
▁seem	-952
▁det	-953
▁gu	-954
▁est	-955
▁Se	-956
osed	-957
▁use	-958
▁including	-959
▁deal	-960
ederal	-961
▁fight	-962
▁expl	-963
▁inf	-964
ull	-965
▁sec	-966
ote	-967
▁vi	-968
▁sm	-969
lam	-970
oney	-971
▁poss	-972
iness	-973
ock	-974
▁FBI	-975
▁ret	-976
gin	-977
▁News	-978
▁start	-979
ness	-980
gy	-981
erest	-982
▁differe	-983
ney	-984
minist	-985
orth	-986
ves	-987
▁tru	-988
▁follow	-989
▁candidates	-990
▁clear	-991
▁might	-992
▁come	-993
ober	-994
▁too	-995
▁national	-996
ential	-997
der	-998
urs	-999
▁somet	-1000
▁called	-1001
cted	-1002
iet	-1003
ix	-1004
▁Dep	-1005
▁hist	-1006
▁around	-1007
ately	-1008
ph	-1009
▁women	-1010
▁Part	-1011
rans	-1012
▁At	-1013
▁race	-1014
▁set	-1015
▁York	-1016
less	-1017
▁ann	-1018
▁fund	-1019
ize	-1020
▁million	-1021
▁commun	-1022
▁leaders	-1023
ason	-1024
ved	-1025
▁change	-1026
▁tax	-1027
▁among	-1028
▁prom	-1029
pr	-1030
ination	-1031
ger	-1032
thing	-1033
▁kill	-1034
▁proble	-1035
▁So	-1036
▁next	-1037
▁gl	-1038
▁try	-1039
any	-1040
▁money	-1041
▁beh	-1042
oot	-1043
▁char	-1044
▁group	-1045
▁Mc	-1046
ivers	-1047
mber	-1048
▁job	-1049
▁case	-1050
▁cur	-1051
▁according	-1052
▁bus	-1053
▁whether	-1054
▁conv	-1055
rent	-1056
ool	-1057
▁viol	-1058
▁stud	-1059
▁great	-1060
ined	-1061
▁immig	-1062
ator	-1063
med	-1064
az	-1065
▁inform	-1066
▁incre	-1067
ross	-1068
IS	-1069
▁car	-1070
▁left	-1071
▁less	-1072
ready	-1073
raq	-1074
orn	-1075
akes	-1076
▁three	-1077
cretary	-1078
ministration	-1079
emp	-1080
ared	-1081
▁top	-1082
▁imp	-1083
▁result	-1084
ior	-1085
▁stand	-1086
▁inc	-1087
eb	-1088
▁Oct	-1089
▁Iraq	-1090
▁really	-1091
▁import	-1092
ead	-1093
▁question	-1094
▁won	-1095
▁past	-1096
ute	-1097
ody	-1098
ought	-1099
▁Senate	-1100
▁health	-1101
▁saying	-1102
▁interest	-1103
▁crit	-1104
▁rele	-1105
▁few	-1106
ience	-1107
▁ban	-1108
ired	-1109
outh	-1110
▁dep	-1111
▁emp	-1112
▁likely	-1113
atch	-1114
▁author	-1115
used	-1116
▁Fl	-1117
▁You	-1118
▁cent	-1119
▁move	-1120
ization	-1121
ik	-1122
▁6	-1123
▁child	-1124
ving	-1125
▁cap	-1126
ably	-1127
ash	-1128
▁foreign	-1129
hes	-1130
▁Sh	-1131
▁inst	-1132
▁happen	-1133
▁already	-1134
ck	-1135
ys	-1136
▁pop	-1137
▁nomine	-1138
ised	-1139
▁Syria	-1140
▁IS	-1141
▁got	-1142
▁officials	-1143
▁sl	-1144
▁Rub	-1145
▁used	-1146
▁things	-1147
ided	-1148
▁let	-1149
▁why	-1150
▁near	-1151
▁believe	-1152
▁head	-1153
▁Department	-1154
▁exper	-1155
▁find	-1156
ices	-1157
▁Ind	-1158
ising	-1159
abl	-1160
▁hard	-1161
▁Christ	-1162
▁partic	-1163
▁days	-1164
ront	-1165
ries	-1166
ified	-1167
▁night	-1168
).	-1169
▁threat	-1170
ending	-1171
▁Rubio	-1172
ds	-1173
ures	-1174
▁che	-1175
▁sen	-1176
▁pass	-1177
uesday	-1178
▁appro	-1179
▁ant	-1180
▁Tuesday	-1181
▁least	-1182
▁serv	-1183
uman	-1184
▁care	-1185
▁Car	-1186
▁Comm	-1187
▁lot	-1188
▁keep	-1189
▁federal	-1190
▁giv	-1191
ider	-1192
▁something	-1193
),	-1194
▁Br	-1195
▁How	-1196
▁emails	-1197
▁business	-1198
land	-1199
▁cre	-1200
▁primary	-1201
▁prev	-1202
▁press	-1203
▁administration	-1204
▁arg	-1205
▁view	-1206
▁ed	-1207
▁trans	-1208
▁allow	-1209
ech	-1210
▁mod	-1211
▁Islam	-1212
▁vict	-1213
▁didn	-1214
atter	-1215
▁nominee	-1216
nes	-1217
▁hand	-1218
▁better	-1219
nce	-1220
▁without	-1221
▁organ	-1222
▁nation	-1223
ract	-1224
ried	-1225
nal	-1226
ient	-1227
▁person	-1228
▁issue	-1229
▁oper	-1230
▁gun	-1231
rael	-1232
▁life	-1233
NN	-1234
▁reported	-1235
imin	-1236
▁requ	-1237
▁black	-1238
▁rest	-1239
ides	-1240
▁priv	-1241
let	-1242
reed	-1243
▁class	-1244
It	-1245
▁place	-1246
▁remain	-1247
▁pay	-1248
▁Ar	-1249
▁conc	-1250
▁dist	-1251
ional	-1252
▁Party	-1253
▁doesn	-1254
▁10	-1255
ished	-1256
idence	-1257
▁become	-1258
▁security	-1259
▁post	-1260
ket	-1261
▁strong	-1262
▁What	-1263
▁Pol	-1264
ued	-1265
▁Russian	-1266
idd	-1267
ific	-1268
▁program	-1269
▁effort	-1270
▁supporters	-1271
▁announ	-1272
uclear	-1273
▁Af	-1274
▁must	-1275
son	-1276
▁open	-1277
ittle	-1278
cond	-1279
▁liber	-1280
▁important	-1281
▁four	-1282
rab	-1283
ites	-1284
▁October	-1285
iting	-1286
▁deleg	-1287
rid	-1288
▁Con	-1289
reme	-1290
▁Mon	-1291
▁control	-1292
arch	-1293
▁came	-1294
▁play	-1295
▁information	-1296
Th	-1297
▁decl	-1298
▁social	-1299
▁9	-1300
▁issues	-1301
ovember	-1302
ten	-1303
▁home	-1304
▁colle	-1305
▁November	-1306
ital	-1307
co	-1308
iversity	-1309
obal	-1310
▁Israel	-1311
▁Bl	-1312
ggest	-1313
ertain	-1314
▁expect	-1315
ivil	-1316
aul	-1317
▁away	-1318
ark	-1319
reet	-1320
▁War	-1321
ev	-1322
▁tell	-1323
▁7	-1324
▁Eur	-1325
▁unt	-1326
▁appear	-1327
▁suggest	-1328
▁meet	-1329
▁Just	-1330
▁hold	-1331
▁different	-1332
▁loc	-1333
atur	-1334
▁aff	-1335
chool	-1336
▁nuclear	-1337
pped	-1338
atives	-1339
▁members	-1340
▁interview	-1341
▁Ab	-1342
▁number	-1343
stand	-1344
tic	-1345
ither	-1346
▁air	-1347
▁es	-1348
▁process	-1349
▁When	-1350
▁fail	-1351
▁large	-1352
▁effect	-1353
▁early	-1354
arent	-1355
oss	-1356
ng	-1357
line	-1358
lim	-1359
▁His	-1360
▁bill	-1361
▁agree	-1362
▁actually	-1363
▁record	-1364
loy	-1365
▁8	-1366
gress	-1367
▁establ	-1368
▁feel	-1369
ale	-1370
▁Mr	-1371
allen	-1372
▁though	-1373
▁close	-1374
▁ISIS	-1375
▁white	-1376
ages	-1377
▁ve	-1378
▁Ass	-1379
▁family	-1380
▁enough	-1381
▁each	-1382
ier	-1383
▁little	-1384
▁prof	-1385
▁best	-1386
▁office	-1387
▁mom	-1388
▁bo	-1389
▁history	-1390
ida	-1391
ony	-1392
▁speech	-1393
▁To	-1394
▁thing	-1395
▁attacks	-1396
ield	-1397
aff	-1398
▁bro	-1399
▁...	-1400
▁asked	-1401
▁conservative	-1402
▁months	-1403
▁took	-1404
▁Z	-1405
wh	-1406
▁ever	-1407
▁pot	-1408
ges	-1409
▁rac	-1410
▁ago	-1411
ering	-1412
uck	-1413
▁vide	-1414
▁Europe	-1415
wit	-1416
ief	-1417
▁cho	-1418
▁Bar	-1419
ittee	-1420
▁human	-1421
▁working	-1422
▁National	-1423
▁Flor	-1424
▁protest	-1425
▁mean	-1426
▁exam	-1427
▁today	-1428
▁Sc	-1429
▁investigation	-1430
▁general	-1431
ursday	-1432
▁Thursday	-1433
aken	-1434
riend	-1435
row	-1436
▁doing	-1437
▁strate	-1438
▁foc	-1439
ators	-1440
▁current	-1441
ott	-1442
▁mass	-1443
ishment	-1444
ump	-1445
▁kind	-1446
▁economic	-1447
▁grow	-1448
ying	-1449
▁Ge	-1450
here	-1451
▁Florida	-1452
▁sever	-1453
▁course	-1454
▁turn	-1455
most	-1456
▁build	-1457
▁seen	-1458
ournal	-1459
▁rights	-1460
ug	-1461
imate	-1462
▁statement	-1463
▁Paul	-1464
▁free	-1465
ured	-1466
▁give	-1467
▁Bern	-1468
▁activ	-1469
▁Ad	-1470
▁Fox	-1471
uslim	-1472
▁reason	-1473
ained	-1474
enn	-1475
ases	-1476
iddle	-1477
itiz	-1478
▁neg	-1479
stitution	-1480
ream	-1481
▁Post	-1482
▁several	-1483
to	-1484
▁Wed	-1485
▁anti	-1486
▁mess	-1487
rupt	-1488
▁sour	-1489
▁Bill	-1490
iously	-1491
▁civil	-1492
▁met	-1493
▁voting	-1494
▁politics	-1495
▁polls	-1496
▁bre	-1497
aring	-1498
nesday	-1499
▁countries	-1500
crib	-1501
▁later	-1502
▁McC	-1503
▁read	-1504
▁list	-1505
▁Wednesday	-1506
▁fac	-1507
▁By	-1508
ways	-1509
▁making	-1510
ins	-1511
▁prop	-1512
▁order	-1513
▁others	-1514
▁sol	-1515
▁sent	-1516
▁children	-1517
▁decision	-1518
owa	-1519
aks	-1520
ived	-1521
▁until	-1522
resent	-1523
▁dest	-1524
ccess	-1525
▁across	-1526
▁level	-1527
▁event	-1528
side	-1529
▁CNN	-1530
ulation	-1531
▁eas	-1532
▁non	-1533
▁behind	-1534
▁intern	-1535
▁problem	-1536
ison	-1537
▁done	-1538
▁forces	-1539
ument	-1540
▁yet	-1541
ted	-1542
▁global	-1543
ots	-1544
riday	-1545
▁2012	-1546
▁challen	-1547
▁One	-1548
▁second	-1549
ched	-1550
▁rece	-1551
▁Friday	-1552
▁Iowa	-1553
ral	-1554
selves	-1555
▁potential	-1556
▁invol	-1557
ele	-1558
ourt	-1559
▁199	-1560
▁appe	-1561
▁discuss	-1562
▁trying	-1563
▁av	-1564
▁once	-1565
▁evidence	-1566
▁billion	-1567
ird	-1568
▁Am	-1569
▁Be	-1570
velop	-1571
▁infl	-1572
▁private	-1573
▁University	-1574
ging	-1575
▁Muslim	-1576
▁possible	-1577
▁running	-1578
▁Monday	-1579
▁Geor	-1580
▁small	-1581
▁miss	-1582
▁given	-1583
▁nomination	-1584
not	-1585
▁Fran	-1586
▁Pro	-1587
▁men	-1588
ended	-1589
ortun	-1590
alf	-1591
▁groups	-1592
▁mor	-1593
ister	-1594
▁Court	-1595
▁court	-1596
▁$1	-1597
▁death	-1598
be	-1599
▁city	-1600
▁tar	-1601
▁With	-1602
▁exec	-1603
▁certain	-1604
▁De	-1605
▁Ham	-1606
▁form	-1607
▁wrote	-1608
ble	-1609
▁particular	-1610
▁fav	-1611
omb	-1612
▁South	-1613
book	-1614
▁times	-1615
▁personal	-1616
▁nothing	-1617
▁ben	-1618
▁test	-1619
▁front	-1620
lier	-1621
▁always	-1622
app	-1623
▁fut	-1624
duc	-1625
▁main	-1626
▁able	-1627
▁story	-1628
▁toward	-1629
tt	-1630
.)	-1631
▁relig	-1632
▁school	-1633
rain	-1634
▁After	-1635
inc	-1636
ury	-1637
ively	-1638
▁vis	-1639
▁equ	-1640
▁means	-1641
orm	-1642
uge	-1643
▁account	-1644
ata	-1645
aps	-1646
▁Islamic	-1647
▁stru	-1648
cement	-1649
▁added	-1650
▁tur	-1651
▁finan	-1652
ference	-1653
▁protect	-1654
fe	-1655
▁shoot	-1656
▁Q	-1657
▁'	-1658
▁along	-1659
ember	-1660
▁continue	-1661
▁market	-1662
▁stop	-1663
lf	-1664
▁sw	-1665
ames	-1666
▁mov	-1667
▁sure	-1668
oci	-1669
▁citiz	-1670
▁video	-1671
▁delegates	-1672
▁isn	-1673
by	-1674
▁Or	-1675
▁friend	-1676
▁himself	-1677
▁convention	-1678
▁cover	-1679
▁majority	-1680
▁often	-1681
▁entire	-1682
▁host	-1683
▁understand	-1684
▁comes	-1685
▁po	-1686
▁cost	-1687
BC	-1688
▁Arab	-1689
▁matter	-1690
aker	-1691
ley	-1692
▁bad	-1693
pecial	-1694
▁Pr	-1695
▁weap	-1696
▁thought	-1697
sh	-1698
ank	-1699
utin	-1700
▁face	-1701
rict	-1702
itor	-1703
▁anything	-1704
▁hour	-1705
▁ground	-1706
go	-1707
▁spec	-1708
▁moment	-1709
▁votes	-1710
▁Min	-1711
ribut	-1712
▁develop	-1713
▁having	-1714
▁address	-1715
▁future	-1716
▁Col	-1717
.,	-1718
▁employ	-1719
▁target	-1720
▁occ	-1721
▁hope	-1722
▁gener	-1723
yn	-1724
▁While	-1725
▁economy	-1726
isl	-1727
▁almost	-1728
▁mill	-1729
osing	-1730
ply	-1731
▁points	-1732
▁Sa	-1733
▁execut	-1734
duct	-1735
▁consider	-1736
▁ca	-1737
▁Bernie	-1738
▁taking	-1739
▁name	-1740
ingly	-1741
▁killed	-1742
▁Dav	-1743
▁within	-1744
▁begin	-1745
uses	-1746
ibility	-1747
▁relations	-1748
AT	-1749
▁sex	-1750
gest	-1751
▁went	-1752
year	-1753
ality	-1754
▁repe	-1755
▁old	-1756
▁Sund	-1757
head	-1758
▁rese	-1759
itions	-1760
▁No	-1761
oke	-1762
▁force	-1763
ored	-1764
▁cut	-1765
urther	-1766
▁immigration	-1767
yan	-1768
rest	-1769
epend	-1770
por	-1771
alif	-1772
exas	-1773
▁known	-1774
▁Secretary	-1775
▁someone	-1776
▁sus	-1777
ike	-1778
▁idea	-1779
▁attemp	-1780
omey	-1781
witter	-1782
▁short	-1783
▁artic	-1784
▁getting	-1785
use	-1786
▁den	-1787
▁Sunday	-1788
▁jud	-1789
▁rad	-1790
▁cond	-1791
▁side	-1792
ivid	-1793
▁11	-1794
▁val	-1795
▁Bo	-1796
▁par	-1797
▁success	-1798
ann	-1799
reedom	-1800
▁questions	-1801
iety	-1802
▁five	-1803
▁super	-1804
▁Wor	-1805
▁deep	-1806
ature	-1807
▁Face	-1808
▁China	-1809
▁direct	-1810
▁line	-1811
izing	-1812
eg	-1813
▁laws	-1814
arth	-1815
▁Rom	-1816
rants	-1817
▁ris	-1818
ellig	-1819
▁emb	-1820
ric	-1821
▁talk	-1822
▁team	-1823
▁North	-1824
▁full	-1825
▁All	-1826
▁dra	-1827
▁Cent	-1828
▁batt	-1829
▁legisl	-1830
▁pat	-1831
▁la	-1832
▁ans	-1833
▁taken	-1834
▁young	-1835
▁describ	-1836
▁comment	-1837
arm	-1838
ilar	-1839
▁Comey	-1840
▁ident	-1841
▁Ph	-1842
▁2015	-1843
▁community	-1844
▁dou	-1845
▁book	-1846
▁reports	-1847
ades	-1848
pite	-1849
▁bas	-1850
▁Mich	-1851
▁data	-1852
gether	-1853
▁together	-1854
▁hig	-1855
▁establishment	-1856
auc	-1857
ipl	-1858
▁either	-1859
pro	-1860
une	-1861
▁coming	-1862
▁Facebook	-1863
▁key	-1864
my	-1865
▁true	-1866
▁crimin	-1867
▁critic	-1868
▁bring	-1869
▁legal	-1870
▁Acc	-1871
▁benef	-1872
▁cou	-1873
▁fear	-1874
▁themselves	-1875
body	-1876
iving	-1877
▁Some	-1878
▁ball	-1879
urd	-1880
ium	-1881
▁Texas	-1882
▁woman	-1883
▁released	-1884
ili	-1885
▁needs	-1886
▁using	-1887
ology	-1888
20	-1889
urch	-1890
▁Afr	-1891
▁anal	-1892
▁position	-1893
▁favor	-1894
fic	-1895
▁2014	-1896
▁financial	-1897
sec	-1898
ament	-1899
▁Times	-1900
▁weeks	-1901
▁Go	-1902
ances	-1903
▁mind	-1904
▁violence	-1905
▁lim	-1906
▁example	-1907
erman	-1908
olution	-1909
▁fil	-1910
▁makes	-1911
▁bomb	-1912
▁politic	-1913
ops	-1914
▁ty	-1915
cy	-1916
▁George	-1917
▁rather	-1918
lect	-1919
itted	-1920
▁doc	-1921
kn	-1922
▁dom	-1923
▁spok	-1924
ifican	-1925
▁influ	-1926
of	-1927
▁Wall	-1928
▁accept	-1929
▁15	-1930
▁simply	-1931
ray	-1932
▁Now	-1933
▁sit	-1934
tor	-1935
▁Gen	-1936
▁fire	-1937
psh	-1938
▁div	-1939
▁concern	-1940
▁victory	-1941
pre	-1942
▁respons	-1943
▁dead	-1944
▁complet	-1945
elligence	-1946
▁elections	-1947
ories	-1948
▁self	-1949
▁Act	-1950
alk	-1951
▁seems	-1952
▁represent	-1953
▁words	-1954
▁international	-1955
▁pa	-1956
like	-1957
▁2008	-1958
▁tot	-1959
▁else	-1960
▁late	-1961
▁thin	-1962
estern	-1963
pshire	-1964
▁local	-1965
▁eng	-1966
▁role	-1967
▁Hampshire	-1968
illeg	-1969
itive	-1970
▁began	-1971
▁cult	-1972
▁trade	-1973
ability	-1974
▁nearly	-1975
part	-1976
ham	-1977
▁wrong	-1978
pecially	-1979
▁respond	-1980
▁individ	-1981
▁earlier	-1982
ining	-1983
▁sing	-1984
ocr	-1985
▁compl	-1986
▁third	-1987
▁Justice	-1988
▁Sup	-1989
▁May	-1990
▁Not	-1991
▁Carol	-1992
▁water	-1993
▁Committee	-1994
ring	-1995
▁bord	-1996
▁Par	-1997
ressed	-1998
arian	-1999
rew	-2000
▁stri	-2001
▁announced	-2002
▁answ	-2003
▁corpor	-2004
▁Supreme	-2005
▁following	-2006
▁based	-2007
cer	-2008
rug	-2009
unt	-2010
▁World	-2011
▁jo	-2012
▁Ben	-2013
▁However	-2014
▁Oh	-2015
▁meas	-2016
▁independ	-2017
anger	-2018
▁Barack	-2019
▁action	-2020
▁mis	-2021
▁wants	-2022
ains	-2023
▁significan	-2024
eed	-2025
atic	-2026
▁held	-2027
▁illeg	-2028
▁Found	-2029
▁however	-2030
▁er	-2031
str	-2032
▁Pal	-2033
▁lost	-2034
▁Street	-2035
▁anyone	-2036
▁half	-2037
ER	-2038
hel	-2039
▁tech	-2040
▁Gov	-2041
▁oppos	-2042
▁abs	-2043
▁probably	-2044
▁Ryan	-2045
▁Putin	-2046
▁focus	-2047
▁further	-2048
▁results	-2049
▁dev	-2050
irm	-2051
▁Romney	-2052
▁message	-2053
▁Res	-2054
▁thous	-2055
sy	-2056
▁journal	-2057
erry	-2058
ners	-2059
▁meeting	-2060
▁Man	-2061
▁citizens	-2062
This	-2063
▁pred	-2064
ept	-2065
aged	-2066
▁tre	-2067
▁lear	-2068
idency	-2069
▁outside	-2070
▁millions	-2071
▁policies	-2072
▁low	-2073
▁cannot	-2074
▁Med	-2075
owd	-2076
uff	-2077
▁Jew	-2078
▁led	-2079
aries	-2080
▁fall	-2081
cons	-2082
ees	-2083
irc	-2084
▁According	-2085
▁secretary	-2086
udi	-2087
▁30	-2088
itional	-2089
ails	-2090
asich	-2091
ening	-2092
uation	-2093
▁looking	-2094
▁similar	-2095
▁leader	-2096
▁coal	-2097
par	-2098
▁Syrian	-2099
▁Carolina	-2100
work	-2101
▁Will	-2102
▁elector	-2103
▁comments	-2104
oti	-2105
▁wa	-2106
IN	-2107
▁Tur	-2108
▁staff	-2109
▁fig	-2110
ently	-2111
ify	-2112
▁trad	-2113
▁enfor	-2114
▁indust	-2115
▁jobs	-2116
▁reve	-2117
▁ur	-2118
NC	-2119
▁especially	-2120
Wh	-2121
▁talking	-2122
▁Brit	-2123
▁weapons	-2124
haps	-2125
▁reform	-2126
▁net	-2127
ico	-2128
▁land	-2129
▁Kasich	-2130
▁itself	-2131
▁Calif	-2132
▁Do	-2133
If	-2134
iles	-2135
▁recently	-2136
ino	-2137
▁dro	-2138
▁und	-2139
▁Twitter	-2140
▁marri	-2141
▁lives	-2142
iam	-2143
ler	-2144
run	-2145
hood	-2146
▁These	-2147
▁peace	-2148
▁doll	-2149
▁live	-2150
▁Pl	-2151
ises	-2152
akers	-2153
▁step	-2154
▁whole	-2155
▁whose	-2156
bs	-2157
▁Mos	-2158
▁cred	-2159
▁deter	-2160
▁field	-2161
▁Sec	-2162
▁officers	-2163
▁Ex	-2164
onse	-2165
▁stat	-2166
▁coun	-2167
though	-2168
▁lo	-2169
right	-2170
▁shows	-2171
▁rally	-2172
▁executive	-2173
In	-2174
▁significant	-2175
▁dam	-2176
▁elected	-2177
▁rev	-2178
▁spokes	-2179
▁everyone	-2180
▁opportun	-2181
▁parties	-2182
▁complete	-2183
▁Ele	-2184
de	-2185
pared	-2186
ards	-2187
▁Mex	-2188
▁opt	-2189
▁contest	-2190
▁everything	-2191
▁Foundation	-2192
uel	-2193
pan	-2194
▁18	-2195
▁Even	-2196
▁respect	-2197
▁West	-2198
▁plans	-2199
kes	-2200
▁adm	-2201
▁instead	-2202
▁governor	-2203
▁contribut	-2204
▁Jan	-2205
▁Me	-2206
lict	-2207
▁six	-2208
▁unf	-2209
ission	-2210
▁source	-2211
fully	-2212
▁ener	-2213
istic	-2214
▁Char	-2215
▁quick	-2216
aturday	-2217
▁response	-2218
▁techn	-2219
▁treat	-2220
onn	-2221
▁tri	-2222
ene	-2223
▁sk	-2224
▁broad	-2225
He	-2226
iter	-2227
mb	-2228
ornia	-2229
▁reb	-2230
▁Black	-2231
▁senator	-2232
iron	-2233
▁problems	-2234
iding	-2235
▁sense	-2236
che	-2237
ficult	-2238
▁pract	-2239
▁presidency	-2240
over	-2241
▁educ	-2242
▁chair	-2243
▁rules	-2244
▁Security	-2245
▁Pe	-2246
▁lat	-2247
amp	-2248
time	-2249
▁Ohio	-2250
▁happened	-2251
▁Ted	-2252
▁emer	-2253
▁truth	-2254
▁liberal	-2255
▁agreement	-2256
ones	-2257
▁cru	-2258
AC	-2259
▁surve	-2260
▁Saturday	-2261
▁difficult	-2262
▁aw	-2263
?”	-2264
ened	-2265
▁More	-2266
▁numbers	-2267
▁becom	-2268
▁progress	-2269
raph	-2270
▁hours	-2271
▁negoti	-2272
▁exist	-2273
▁access	-2274
istan	-2275
aled	-2276
▁base	-2277
ape	-2278
abor	-2279
▁final	-2280
▁enc	-2281
▁watch	-2282
▁director	-2283
▁religious	-2284
▁bar	-2285
udget	-2286
▁marriage	-2287
ffic	-2288
▁serious	-2289
ada	-2290
▁decades	-2291
ats	-2292
edi	-2293
▁article	-2294
augh	-2295
▁comb	-2296
▁California	-2297
unch	-2298
▁Sch	-2299
ences	-2300
▁David	-2301
▁destro	-2302
fer	-2303
▁oil	-2304
▁chance	-2305
▁movement	-2306
▁0	-2307
▁12	-2308
isis	-2309
▁wasn	-2310
▁wanted	-2311
▁Wik	-2312
▁sum	-2313
▁became	-2314
▁single	-2315
▁efforts	-2316
▁reality	-2317
▁East	-2318
▁profess	-2319
▁Can	-2320
ault	-2321
▁dr	-2322
ological	-2323
ogn	-2324
▁advis	-2325
▁Le	-2326
▁ste	-2327
pping	-2328
▁started	-2329
ON	-2330
come	-2331
▁pus	-2332
▁area	-2333
▁increas	-2334
orse	-2335
ural	-2336
▁immigrants	-2337
ocracy	-2338
▁chang	-2339
▁March	-2340
▁turned	-2341
▁special	-2342
▁gave	-2343
els	-2344
▁congress	-2345
elt	-2346
▁Uk	-2347
▁leading	-2348
aced	-2349
rovers	-2350
▁const	-2351
▁danger	-2352
▁longer	-2353
af	-2354
▁pret	-2355
▁tried	-2356
▁thousands	-2357
▁Net	-2358
▁del	-2359
▁opin	-2360
▁z	-2361
reg	-2362
▁stage	-2363
You	-2364
clus	-2365
rage	-2366
ming	-2367
▁2013	-2368
▁Of	-2369
▁obs	-2370
RE	-2371
lex	-2372
▁Har	-2373
▁doub	-2374
ortion	-2375
▁Indian	-2376
▁forward	-2377
▁ign	-2378
▁present	-2379
ift	-2380
rior	-2381
▁hop	-2382
▁hon	-2383
itting	-2384
▁attention	-2385
▁Ag	-2386
▁expected	-2387
overed	-2388
▁reporters	-2389
▁common	-2390
▁conservatives	-2391
eet	-2392
▁Her	-2393
▁food	-2394
yond	-2395
tim	-2396
▁compet	-2397
▁latest	-2398
▁Spe	-2399
ager	-2400
igin	-2401
▁drug	-2402
▁repl	-2403
▁exact	-2404
▁senior	-2405
▁worked	-2406
▁criminal	-2407
iver	-2408
▁Saudi	-2409
▁corrupt	-2410
▁workers	-2411
▁strategy	-2412
▁population	-2413
1,	-2414
There	-2415
▁Here	-2416
rought	-2417
▁capital	-2418
aily	-2419
▁mult	-2420
▁immedi	-2421
ids	-2422
cing	-2423
▁elect	-2424
▁return	-2425
que	-2426
▁Ju	-2427
ensive	-2428
▁share	-2429
▁Sept	-2430
▁Polit	-2431
▁stay	-2432
▁leave	-2433
▁soon	-2434
▁intelligence	-2435
▁risk	-2436
▁conflict	-2437
▁Cub	-2438
▁African	-2439
▁controvers	-2440
isan	-2441
▁morning	-2442
▁Co	-2443
▁choice	-2444
▁company	-2445
▁fra	-2446
▁lack	-2447
▁experience	-2448
▁var	-2449
▁claims	-2450
oon	-2451
▁actions	-2452
▁crisis	-2453
▁ran	-2454
▁chief	-2455
▁spent	-2456
▁received	-2457
▁init	-2458
▁Press	-2459
▁regard	-2460
▁heart	-2461
ruction	-2462
▁strateg	-2463
orter	-2464
iber	-2465
▁nar	-2466
▁tro	-2467
▁ways	-2468
▁terrorist	-2469
▁tele	-2470
▁involved	-2471
▁50	-2472
▁trust	-2473
▁terrorism	-2474
▁circ	-2475
▁fell	-2476
▁love	-2477
sequ	-2478
▁shot	-2479
▁Christie	-2480
▁ahead	-2481
esta	-2482
iden	-2483
▁coll	-2484
▁conference	-2485
▁enforcement	-2486
uments	-2487
▁cases	-2488
▁surpr	-2489
▁voter	-2490
▁ri	-2491
▁light	-2492
▁particularly	-2493
key	-2494
▁san	-2495
▁Boe	-2496
lying	-2497
▁break	-2498
▁histor	-2499
▁Jeb	-2500
▁saw	-2501
▁bank	-2502
▁Paris	-2503
irt	-2504
pir	-2505
▁fighting	-2506
//	-2507
agan	-2508
▁198	-2509
▁temp	-2510
stream	-2511
▁leadership	-2512
▁indic	-2513
▁failed	-2514
▁needed	-2515
▁cauc	-2516
▁arrest	-2517
▁middle	-2518
▁climate	-2519
ends	-2520
aving	-2521
odesta	-2522
▁budget	-2523
▁calling	-2524
Amer	-2525
▁pur	-2526
▁cause	-2527
erve	-2528
▁necess	-2529
▁Johnson	-2530
▁popular	-2531
rant	-2532
ster	-2533
utes	-2534
wing	-2535
▁mag	-2536
▁compan	-2537
▁spending	-2538
ya	-2539
umb	-2540
igned	-2541
amed	-2542
▁Intern	-2543
▁energy	-2544
▁server	-2545
oph	-2546
▁sy	-2547
uing	-2548
▁demon	-2549
▁situation	-2550
▁env	-2551
▁influence	-2552
▁25	-2553
▁June	-2554
▁showed	-2555
▁increase	-2556
▁repeated	-2557
down	-2558
ached	-2559
aster	-2560
▁goes	-2561
▁Center	-2562
▁amount	-2563
▁answer	-2564
▁create	-2565
▁winning	-2566
▁tweet	-2567
▁bit	-2568
▁German	-2569
▁secret	-2570
▁despite	-2571
▁term	-2572
▁Associ	-2573
▁member	-2574
ilt	-2575
▁justice	-2576
7,	-2577
hold	-2578
▁red	-2579
▁aver	-2580
aining	-2581
▁friends	-2582
ania	-2583
▁God	-2584
vention	-2585
oid	-2586
ceed	-2587
ipe	-2588
hern	-2589
▁First	-2590
▁insur	-2591
hers	-2592
▁deli	-2593
eter	-2594
▁July	-2595
isions	-2596
▁published	-2597
ein	-2598
▁Gu	-2599
ires	-2600
▁illegal	-2601
▁companies	-2602
lean	-2603
▁events	-2604
▁shooting	-2605
▁body	-2606
▁Biden	-2607
▁calls	-2608
▁Middle	-2609
Trump	-2610
▁debt	-2611
▁border	-2612
▁recogn	-2613
://	-2614
arson	-2615
where	-2616
ruct	-2617
▁Ant	-2618
▁aud	-2619
▁heard	-2620
ron	-2621
▁Ver	-2622
alled	-2623
▁paid	-2624
▁study	-2625
▁minor	-2626
▁brought	-2627
▁Carson	-2628
▁fun	-2629
▁rate	-2630
▁crowd	-2631
reen	-2632
▁prison	-2633
▁Su	-2634
▁letter	-2635
▁prevent	-2636
▁project	-2637
ww	-2638
ael	-2639
iod	-2640
▁14	-2641
▁hit	-2642
while	-2643
▁moder	-2644
▁total	-2645
uary	-2646
▁Western	-2647
▁provide	-2648
▁interests	-2649
hner	-2650
rench	-2651
▁General	-2652
arily	-2653
ilies	-2654
▁defe	-2655
undred	-2656
▁allies	-2657
ims	-2658
ghan	-2659
▁higher	-2660
▁strugg	-2661
▁decided	-2662
▁freedom	-2663
▁impa	-2664
▁wife	-2665
▁crime	-2666
mail	-2667
▁riv	-2668
aught	-2669
ane	-2670
▁Podesta	-2671
▁defense	-2672
▁research	-2673
▁James	-2674
▁review	-2675
▁Lib	-2676
▁pap	-2677
▁aut	-2678
▁willing	-2679
▁noted	-2680
▁Boehner	-2681
▁heav	-2682
▁suspect	-2683
▁ul	-2684
▁town	-2685
▁remains	-2686
▁cal	-2687
▁ey	-2688
ender	-2689
▁Many	-2690
ironment	-2691
▁Muslims	-2692
▁appears	-2693
▁continued	-2694
▁ask	-2695
utions	-2696
▁certainly	-2697
▁politicians	-2698
▁scient	-2699
ets	-2700
▁Day	-2701
▁gets	-2702
▁Jer	-2703
ously	-2704
▁knows	-2705
▁Palest	-2706
▁htt	-2707
acked	-2708
▁oppon	-2709
anged	-2710
light	-2711
▁quite	-2712
▁voted	-2713
▁claimed	-2714
▁Afghan	-2715
▁father	-2716
▁origin	-2717
11	-2718
▁ord	-2719
makers	-2720
▁wealth	-2721
▁created	-2722
▁society	-2723
rect	-2724
aging	-2725
▁maint	-2726
▁described	-2727
know	-2728
▁Des	-2729
▁sold	-2730
▁whom	-2731
▁families	-2732
▁Def	-2733
▁living	-2734
▁release	-2735
stitutional	-2736
▁exch	-2737
▁propos	-2738
rit	-2739
ibly	-2740
▁beyond	-2741
▁perhaps	-2742
▁students	-2743
▁Bre	-2744
▁Why	-2745
6,	-2746
▁ill	-2747
ications	-2748
▁relationship	-2749
▁building	-2750
▁hear	-2751
anding	-2752
▁agency	-2753
▁battle	-2754
▁destroy	-2755
riz	-2756
▁Mo	-2757
duce	-2758
do	-2759
▁terms	-2760
▁subject	-2761
▁path	-2762
▁Count	-2763
▁allowed	-2764
▁industry	-2765
ows	-2766
▁aren	-2767
atural	-2768
▁quickly	-2769
▁opportunity	-2770
br	-2771
nect	-2772
▁above	-2773
▁service	-2774
owers	-2775
▁rise	-2776
▁mention	-2777
▁esc	-2778
duced	-2779
ilities	-2780
▁assault	-2781
▁perform	-2782
▁prior	-2783
▁French	-2784
▁cy	-2785
▁biggest	-2786
▁challenge	-2787
aces	-2788
▁opposition	-2789
asc	-2790
iple	-2791
▁obv	-2792
▁pull	-2793
▁helped	-2794
▁:	-2795
▁TH	-2796
band	-2797
▁dism	-2798
▁predict	-2799
sey	-2800
▁Ed	-2801
▁prosec	-2802
▁particip	-2803
IL	-2804
▁extreme	-2805
▁European	-2806
▁powerful	-2807
osp	-2808
▁phot	-2809
▁safe	-2810
▁separ	-2811
▁proper	-2812
▁region	-2813
▁college	-2814
▁counter	-2815
▁appeared	-2816
bor	-2817
ota	-2818
▁impro	-2819
”.	-2820
uty	-2821
iner	-2822
▁mot	-2823
▁mainstream	-2824
▁organization	-2825
ask	-2826
▁ess	-2827
▁hands	-2828
▁vo	-2829
alse	-2830
▁inj	-2831
▁Election	-2832
▁authorities	-2833
▁areas	-2834
▁regul	-2835
American	-2836
▁dollars	-2837
ches	-2838
pace	-2839
▁ens	-2840
▁word	-2841
SA	-2842
ias	-2843
oday	-2844
▁Pat	-2845
▁views	-2846
▁January	-2847
▁Michael	-2848
▁terrorists	-2849
irgin	-2850
▁carry	-2851
▁ability	-2852
▁40	-2853
using	-2854
▁gold	-2855
▁eight	-2856
▁Minister	-2857
angu	-2858
▁sound	-2859
▁worth	-2860
▁include	-2861
cont	-2862
▁scand	-2863
ograph	-2864
▁parent	-2865
▁100	-2866
atory	-2867
▁Then	-2868
▁house	-2869
▁giving	-2870
▁endorse	-2871
▁13	-2872
oting	-2873
▁fair	-2874
▁impact	-2875
▁exactly	-2876
▁ap	-2877
▁Aug	-2878
▁pie	-2879
ledge	-2880
▁approach	-2881
set	-2882
▁alle	-2883
▁takes	-2884
▁hundred	-2885
encies	-2886
val	-2887
▁Te	-2888
50	-2889
IA	-2890
raft	-2891
▁due	-2892
▁sort	-2893
▁advoc	-2894
▁Inst	-2895
▁concerns	-2896
▁vol	-2897
▁suff	-2898
▁speak	-2899
▁seemed	-2900
lig	-2901
ecause	-2902
▁growing	-2903
ana	-2904
They	-2905
▁accom	-2906
▁Virgin	-2907
▁troops	-2908
▁lower	-2909
ext	-2910
aling	-2911
▁From	-2912
▁Lat	-2913
▁spoke	-2914
▁veter	-2915
ris	-2916
iplom	-2917
gth	-2918
▁vers	-2919
▁refer	-2920
▁Police	-2921
▁congressional	-2922
▁TV	-2923
▁growth	-2924
off	-2925
▁passed	-2926
ode	-2927
▁huge	-2928
ources	-2929
▁Right	-2930
uit	-2931
▁hus	-2932
▁acknow	-2933
▁corporate	-2934
cil	-2935
▁Dr	-2936
enda	-2937
▁Chris	-2938
▁inside	-2939
▁request	-2940
berg	-2941
▁avail	-2942
▁People	-2943
▁convers	-2944
ATO	-2945
▁September	-2946
raz	-2947
rief	-2948
▁unc	-2949
▁game	-2950
▁room	-2951
▁spokesman	-2952
▁Ma	-2953
▁mist	-2954
▁funding	-2955
▁organiz	-2956
▁education	-2957
▁dri	-2958
erson	-2959
▁street	-2960
▁Soc	-2961
▁alone	-2962
▁continues	-2963
▁hy	-2964
▁sto	-2965
▁El	-2966
oper	-2967
pril	-2968
▁Dire	-2969
▁worse	-2970
▁opinion	-2971
▁legislation	-2972
▁197	-2973
▁mid	-2974
raine	-2975
▁Union	-2976
mar	-2977
▁upon	-2978
▁wide	-2979
▁France	-2980
acter	-2981
inated	-2982
▁April	-2983
▁period	-2984
▁wouldn	-2985
AR	-2986
OR	-2987
▁Gl	-2988
hest	-2989
ection	-2990
ishing	-2991
aterial	-2992
▁(@	-2993
▁directly	-2994
bl	-2995
▁lose	-2996
▁pros	-2997
▁individual	-2998
▁mach	-2999
▁Marco	-3000
▁raised	-3001
▁husband	-3002
▁showing	-3003
▁Christian	-3004
rop	-3005
▁pled	-3006
▁concer	-3007
▁polling	-3008
-1	-3009
▁pic	-3010
▁King	-3011
▁cast	-3012
▁refuge	-3013
▁travel	-3014
▁phys	-3015
idered	-3016
▁speaking	-3017
▁independent	-3018
Le	-3019
▁UN	-3020
▁Yet	-3021
olute	-3022
▁Feb	-3023
ession	-3024
▁center	-3025
▁”	-3026
▁bir	-3027
▁paper	-3028
▁Ukraine	-3029
▁alleged	-3030
▁sil	-3031
▁false	-3032
▁donors	-3033
▁product	-3034
ai	-3035
anda	-3036
▁average	-3037
▁massive	-3038
vert	-3039
ading	-3040
atever	-3041
▁Virginia	-3042
▁immediately	-3043
▁Cons	-3044
▁ready	-3045
▁income	-3046
▁coalition	-3047
▁1,	-3048
▁Coun	-3049
▁Obam	-3050
▁faith	-3051
▁electoral	-3052
▁environment	-3053
asons	-3054
hetor	-3055
▁Most	-3056
▁rule	-3057
▁included	-3058
ugh	-3059
iance	-3060
▁trou	-3061
▁blood	-3062
▁racial	-3063
▁officer	-3064
▁Cap	-3065
▁aggress	-3066
▁disp	-3067
▁sources	-3068
▁considered	-3069
rus	-3070
▁encou	-3071
stitute	-3072
▁supposed	-3073
▁deg	-3074
▁shut	-3075
▁@	-3076
▁Tw	-3077
▁sal	-3078
▁knew	-3079
▁Rober	-3080
▁diplom	-3081
▁changes	-3082
▁Clintons	-3083
▁supporting	-3084
itten	-3085
▁felt	-3086
idents	-3087
▁phone	-3088
▁Govern	-3089
▁rhetor	-3090
▁attempt	-3091
▁fre	-3092
▁loss	-3093
▁apparent	-3094
olled	-3095
▁raise	-3096
▁sexual	-3097
.’	-3098
azi	-3099
▁Per	-3100
▁camp	-3101
▁28	-3102
aire	-3103
oses	-3104
▁eth	-3105
▁NATO	-3106
▁figure	-3107
▁changed	-3108
▁details	-3109
acc	-3110
isc	-3111
icit	-3112
uals	-3113
▁polar	-3114
▁suggested	-3115
aint	-3116
ander	-3117
▁tens	-3118
▁neigh	-3119
▁Jewish	-3120
▁material	-3121
▁campaigns	-3122
chie	-3123
▁age	-3124
▁reach	-3125
▁previous	-3126
▁democracy	-3127
▁classified	-3128
acare	-3129
▁webs	-3130
▁Other	-3131
▁nations	-3132
▁require	-3133
▁Wis	-3134
▁ones	-3135
onnell	-3136
▁abortion	-3137
▁Law	-3138
▁ple	-3139
▁site	-3140
▁surv	-3141
ression	-3142
▁clearly	-3143
ING	-3144
▁USA	-3145
▁enem	-3146
▁except	-3147
▁sanctions	-3148
▁Reagan	-3149
▁finally	-3150
ahu	-3151
oted	-3152
▁wall	-3153
▁altern	-3154
▁search	-3155
ES	-3156
▁24	-3157
ester	-3158
▁agenda	-3159
▁margin	-3160
▁pretty	-3161
▁brother	-3162
olit	-3163
▁August	-3164
IC	-3165
▁vice	-3166
▁princ	-3167
▁British	-3168
▁central	-3169
▁committee	-3170
▁William	-3171
▁Ken	-3172
▁currently	-3173
9,	-3174
level	-3175
▁son	-3176
▁City	-3177
▁stren	-3178
▁fundra	-3179
▁accused	-3180
▁believes	-3181
urt	-3182
▁ful	-3183
▁poor	-3184
▁sell	-3185
▁brief	-3186
▁available	-3187
▁beginning	-3188
▁operation	-3189
dd	-3190
▁Tr	-3191
▁Ear	-3192
▁below	-3193
▁doubt	-3194
▁trail	-3195
▁document	-3196
▁gas	-3197
▁typ	-3198
▁Fore	-3199
▁achie	-3200
▁fraud	-3201
▁taxes	-3202
▁commit	-3203
▁2010	-3204
▁gone	-3205
▁wond	-3206
That	-3207
agon	-3208
term	-3209
▁Gold	-3210
▁cele	-3211
▁clos	-3212
▁Those	-3213
▁Turkey	-3214
itch	-3215
▁pan	-3216
▁rig	-3217
▁County	-3218
▁forced	-3219
▁Director	-3220
▁insurance	-3221
▁Cor	-3222
▁behav	-3223
▁thinking	-3224
▁lawmakers	-3225
anguage	-3226
▁insist	-3227
irmed	-3228
vision	-3229
▁Federal	-3230
▁dangerous	-3231
And	-3232
ocked	-3233
▁regime	-3234
▁unlike	-3235
▁Obamacare	-3236
lv	-3237
hem	-3238
▁17	-3239
▁wins	-3240
aching	-3241
▁serve	-3242
▁disapp	-3243
▁reasons	-3244
ript	-3245
▁hot	-3246
▁Charl	-3247
▁ruling	-3248
▁Bro	-3249
▁hor	-3250
▁talks	-3251
▁parents	-3252
▁increasingly	-3253
▁hom	-3254
▁Liber	-3255
▁defend	-3256
▁served	-3257
rel	-3258
rust	-3259
▁Off	-3260
▁Well	-3261
▁wars	-3262
▁bur	-3263
▁coverage	-3264
▁My	-3265
aine	-3266
▁amb	-3267
▁easy	-3268
▁Libya	-3269
▁modern	-3270
▁mother	-3271
▁stories	-3272
pag	-3273
consin	-3274
▁Since	-3275
▁alleg	-3276
▁check	-3277
▁editor	-3278
▁largely	-3279
▁positions	-3280
has	-3281
mit	-3282
umer	-3283
▁occur	-3284
▁primaries	-3285
▁throughout	-3286
▁push	-3287
anyahu	-3288
▁offer	-3289
▁Arabia	-3290
elly	-3291
▁fem	-3292
orney	-3293
▁subs	-3294
▁tough	-3295
▁works	-3296
▁associ	-3297
erc	-3298
aves	-3299
ysis	-3300
▁depl	-3301
▁Journal	-3302
▁records	-3303
▁pressure	-3304
But	-3305
add	-3306
yle	-3307
▁cities	-3308
▁correct	-3309
▁weekend	-3310
▁Wisconsin	-3311
airs	-3312
arks	-3313
▁capt	-3314
▁completely	-3315
▁exc	-3316
ented	-3317
▁Plan	-3318
more	-3319
▁196	-3320
▁consequ	-3321
▁criticism	-3322
fow	-3323
▁culture	-3324
▁network	-3325
▁argument	-3326
▁Ro	-3327
▁Rich	-3328
▁prec	-3329
runner	-3330
▁Mexico	-3331
▁object	-3332
new	-3333
▁ir	-3334
estic	-3335
▁Penn	-3336
▁advant	-3337
▁status	-3338
▁Instead	-3339
▁benefits	-3340
ih	-3341
men	-3342
▁Sm	-3343
▁sett	-3344
▁track	-3345
▁belief	-3346
▁chairman	-3347
▁Netanyahu	-3348
irl	-3349
▁Don	-3350
▁rap	-3351
▁character	-3352
▁documents	-3353
▁ten	-3354
▁guns	-3355
▁attorney	-3356
▁scre	-3357
itness	-3358
▁assist	-3359
▁ballot	-3360
▁series	-3361
▁operations	-3362
ret	-3363
▁looks	-3364
aughter	-3365
▁affect	-3366
umpt	-3367
▁bal	-3368
▁Mike	-3369
▁driv	-3370
▁purp	-3371
cember	-3372
▁defin	-3373
▁agents	-3374
▁21	-3375
What	-3376
itud	-3377
▁gay	-3378
ource	-3379
▁Miss	-3380
fowars	-3381
▁rhetoric	-3382
.5	-3383
30	-3384
▁port	-3385
▁Iraqi	-3386
▁Scott	-3387
▁board	-3388
▁ideas	-3389
▁popul	-3390
la	-3391
rely	-3392
▁ment	-3393
▁critical	-3394
▁followed	-3395
▁protesters	-3396
going	-3397
▁McConnell	-3398
▁16	-3399
▁pun	-3400
action	-3401
▁Iranian	-3402
▁appoint	-3403
OT	-3404
oul	-3405
cast	-3406
oved	-3407
▁visit	-3408
▁creat	-3409
▁online	-3410
▁radical	-3411
▁En	-3412
▁lawy	-3413
▁judge	-3414
▁During	-3415
16	-3416
lin	-3417
iers	-3418
Leaks	-3419
▁December	-3420
cle	-3421
mine	-3422
▁guy	-3423
▁nor	-3424
▁subst	-3425
▁various	-3426
▁Let	-3427
▁rates	-3428
▁reject	-3429
ification	-3430
▁Palestin	-3431
▁essential	-3432
▁$2	-3433
▁Int	-3434
▁Today	-3435
ny	-3436
▁)	-3437
igan	-3438
▁App	-3439
▁foot	-3440
▁susp	-3441
▁declared	-3442
▁repeatedly	-3443
erg	-3444
▁avoid	-3445
▁programs	-3446
ung	-3447
▁Je	-3448
sylv	-3449
▁imag	-3450
▁Indiana	-3451
▁determin	-3452
mon	-3453
▁Joe	-3454
▁Jud	-3455
icated	-3456
▁reached	-3457
▁provided	-3458
▁Wiki	-3459
▁measure	-3460
▁Constitution	-3461
▁Bel	-3462
▁ang	-3463
▁doz	-3464
▁norm	-3465
▁text	-3466
ground	-3467
ipeline	-3468
▁adding	-3469
▁telling	-3470
▁website	-3471
▁seven	-3472
▁Another	-3473
▁focused	-3474
▁absolute	-3475
▁supported	-3476
▁department	-3477
▁Afghanistan	-3478
EA	-3479
fect	-3480
▁Bal	-3481
▁lif	-3482
based	-3483
iring	-3484
sylvania	-3485
▁Defense	-3486
▁experts	-3487
▁Eng	-3488
▁mostly	-3489
timately	-3490
▁revealed	-3491
▁Im	-3492
aked	-3493
▁impl	-3494
▁Pence	-3495
▁banks	-3496
▁largest	-3497
▁standing	-3498
▁expressed	-3499
mont	-3500
▁bul	-3501
▁purs	-3502
▁demand	-3503
▁specific	-3504
▁star	-3505
▁cancer	-3506
▁nature	-3507
▁natural	-3508
▁offered	-3509
sex	-3510
▁Lyn	-3511
▁cust	-3512
▁debates	-3513
▁activists	-3514
▁60	-3515
oring	-3516
▁candidacy	-3517
▁Pennsylvania	-3518
▁announcement	-3519
ills	-3520
▁believed	-3521
▁difference	-3522
bed	-3523
▁DNC	-3524
inary	-3525
▁birth	-3526
duction	-3527
▁fellow	-3528
▁consist	-3529
▁WikiLeaks	-3530
▁employees	-3531
▁Associated	-3532
vest	-3533
▁flo	-3534
▁pra	-3535
▁church	-3536
▁warned	-3537
rif	-3538
▁Lead	-3539
rative	-3540
▁racist	-3541
▁hundreds	-3542
iff	-3543
▁holding	-3544
▁pointed	-3545
ona	-3546
emen	-3547
oman	-3548
read	-3549
▁levels	-3550
▁written	-3551
olic	-3552
▁dig	-3553
▁lic	-3554
▁Matt	-3555
▁hate	-3556
▁authority	-3557
▁committed	-3558
▁increased	-3559
▁necessary	-3560
,’	-3561
te	-3562
equ	-3563
wide	-3564
▁PAC	-3565
▁Rel	-3566
▁goal	-3567
▁Every	-3568
▁Foreign	-3569
▁opposed	-3570
▁seeking	-3571
▁becoming	-3572
▁district	-3573
▁communities	-3574
ique	-3575
iling	-3576
itarian	-3577
▁herself	-3578
▁confirmed	-3579
play	-3580
▁San	-3581
▁Mart	-3582
▁Phil	-3583
▁firm	-3584
▁built	-3585
▁crimes	-3586
▁highly	-3587
▁Israeli	-3588
▁language	-3589
▁possibility	-3590
▁Our	-3591
▁bid	-3592
▁died	-3593
▁medical	-3594
▁resources	-3595
gypt	-3596
▁meant	-3597
▁moving	-3598
▁Council	-3599
▁Michigan	-3600
▁pick	-3601
▁Kerry	-3602
US	-3603
▁THE	-3604
ially	-3605
▁extra	-3606
▁couldn	-3607
▁propag	-3608
ado	-3609
▁Nev	-3610
ruary	-3611
▁Over	-3612
▁Serv	-3613
▁beat	-3614
▁Kelly	-3615
▁greater	-3616
▁negative	-3617
▁governments	-3618
ero	-3619
▁Cr	-3620
iven	-3621
nces	-3622
▁maybe	-3623
▁trend	-3624
endment	-3625
▁happens	-3626
▁Are	-3627
▁values	-3628
▁charges	-3629
▁collect	-3630
▁contributed	-3631
BS	-3632
aly	-3633
eth	-3634
▁pict	-3635
▁lines	-3636
▁victims	-3637
▁includes	-3638
▁previously	-3639
ky	-3640
omen	-3641
▁born	-3642
▁hasn	-3643
▁plat	-3644
▁send	-3645
owed	-3646
▁uns	-3647
▁labor	-3648
▁appeal	-3649
▁couple	-3650
▁summer	-3651
▁Vermont	-3652
▁century	-3653
▁concerned	-3654
enced	-3655
▁Abed	-3656
▁kept	-3657
▁seek	-3658
▁prosecut	-3659
▁fundament	-3660
ago	-3661
whel	-3662
▁NBC	-3663
▁mur	-3664
asion	-3665
▁cross	-3666
▁leaving	-3667
▁Jim	-3668
▁Mor	-3669
▁flag	-3670
▁February	-3671
▁positive	-3672
apt	-3673
wor	-3674
race	-3675
▁laun	-3676
▁extrem	-3677
▁audience	-3678
illed	-3679
▁agreed	-3680
▁killing	-3681
▁compared	-3682
fort	-3683
imum	-3684
▁buy	-3685
▁Egypt	-3686
▁argued	-3687
▁analysis	-3688
ball	-3689
▁Warren	-3690
▁defeat	-3691
▁remind	-3692
▁happening	-3693
uz	-3694
▁22	-3695
▁Aust	-3696
▁weak	-3697
▁Abedin	-3698
▁remarks	-3699
▁development	-3700
New	-3701
▁squ	-3702
akota	-3703
inese	-3704
▁space	-3705
▁Hispan	-3706
▁Nevada	-3707
▁warning	-3708
▁explained	-3709
wise	-3710
ication	-3711
aed	-3712
han	-3713
pay	-3714
inent	-3715
▁piece	-3716
▁radio	-3717
▁powers	-3718
ken	-3719
▁sn	-3720
obby	-3721
well	-3722
▁Aff	-3723
▁Mean	-3724
iverse	-3725
▁regist	-3726
▁addition	-3727
▁alternative	-3728
▁International	-3729
▁vast	-3730
▁Because	-3731
▁remember	-3732
ume	-3733
▁Walk	-3734
▁worst	-3735
▁places	-3736
▁Senator	-3737
▁scandal	-3738
▁violent	-3739
▁organizations	-3740
▁Qu	-3741
prof	-3742
▁sat	-3743
▁cell	-3744
▁costs	-3745
▁elite	-3746
▁Office	-3747
▁speaker	-3748
▁television	-3749
AN	-3750
yl	-3751
rich	-3752
▁road	-3753
▁wind	-3754
ocratic	-3755
▁Jersey	-3756
▁restrict	-3757
▁individuals	-3758
▁scen	-3759
arc	-3760
illing	-3761
▁Lynch	-3762
▁damage	-3763
▁minutes	-3764
▁billionaire	-3765
ival	-3766
▁via	-3767
▁Fior	-3768
▁Mary	-3769
▁decide	-3770
▁hearing	-3771
▁advantage	-3772
▁statements	-3773
ki	-3774
▁wal	-3775
▁India	-3776
▁arriv	-3777
▁intro	-3778
▁expand	-3779
▁signed	-3780
▁simple	-3781
▁standard	-3782
ety	-3783
ples	-3784
▁virt	-3785
▁Great	-3786
▁pushing	-3787
▁regular	-3788
EC	-3789
ij	-3790
ador	-3791
ease	-3792
▁matt	-3793
▁comput	-3794
▁issued	-3795
▁resist	-3796
craft	-3797
▁conne	-3798
▁Weiner	-3799
▁stra	-3800
▁Daily	-3801
▁Fiorina	-3802
▁relative	-3803
▁whatever	-3804
▁acknowled	-3805
rog	-3806
oros	-3807
▁pen	-3808
▁2011	-3809
▁sides	-3810
▁closed	-3811
▁sought	-3812
room	-3813
ansas	-3814
antly	-3815
▁content	-3816
▁highest	-3817
▁protests	-3818
enses	-3819
▁perm	-3820
▁Dakota	-3821
▁learned	-3822
gun	-3823
enty	-3824
▁aim	-3825
▁Share	-3826
▁deploy	-3827
▁Chinese	-3828
▁Meanwhile	-3829
alia	-3830
▁log	-3831
▁conclud	-3832
▁behavior	-3833
oud	-3834
▁Air	-3835
▁har	-3836
▁charge	-3837
▁witness	-3838
▁confront	-3839
uf	-3840
cks	-3841
see	-3842
▁Sp	-3843
back	-3844
▁Fed	-3845
▁fix	-3846
▁block	-3847
outhern	-3848
▁Social	-3849
▁Speaker	-3850
▁overwhel	-3851
....	-3852
iled	-3853
range	-3854
▁tact	-3855
▁armed	-3856
ossible	-3857
▁actual	-3858
▁agencies	-3859
▁contrast	-3860
▁decisions	-3861
▁lies	-3862
▁Still	-3863
atically	-3864
▁exchange	-3865
▁corruption	-3866
rap	-3867
iders	-3868
▁Kore	-3869
▁asking	-3870
▁honest	-3871
▁survey	-3872
umn	-3873
icago	-3874
lical	-3875
▁outcome	-3876
▁neighbor	-3877
▁Institute	-3878
?"	-3879
▁arms	-3880
▁hack	-3881
▁murder	-3882
▁Army	-3883
▁Germany	-3884
▁although	-3885
▁platform	-3886
▁traditional	-3887
cript	-3888
ients	-3889
point	-3890
▁estim	-3891
▁plane	-3892
dom	-3893
▁Dan	-3894
▁Two	-3895
▁Both	-3896
▁Mosul	-3897
▁caused	-3898
iliar	-3899
▁rival	-3900
▁shown	-3901
▁conduct	-3902
▁responsibility	-3903
▁lin	-3904
▁Yemen	-3905
▁celebr	-3906
▁meaning	-3907
▁perfect	-3908
ials	-3909
▁grad	-3910
▁ended	-3911
▁facts	-3912
agement	-3913
▁Health	-3914
▁posted	-3915
election	-3916
▁explain	-3917
▁prospect	-3918
▁additional	-3919
▁responsible	-3920
▁appl	-3921
called	-3922
▁larger	-3923
▁Chicago	-3924
!”	-3925
adi	-3926
ublic	-3927
▁wait	-3928
▁moved	-3929
▁multiple	-3930
▁religion	-3931
▁ultimately	-3932
▁Ne	-3933
▁note	-3934
▁page	-3935
▁thinks	-3936
▁partisan	-3937
alt	-3938
rial	-3939
▁Cont	-3940
▁ensure	-3941
▁joined	-3942
▁benefit	-3943
▁refused	-3944
▁arrested	-3945
ED	-3946
▁Che	-3947
▁Home	-3948
▁fully	-3949
▁Freedom	-3950
▁contact	-3951
aeda	-3952
▁girl	-3953
▁Their	-3954
▁haven	-3955
▁becomes	-3956
▁schools	-3957
▁discussion	-3958
7.	-3959
▁dark	-3960
▁join	-3961
▁ties	-3962
▁detail	-3963
lement	-3964
▁gives	-3965
▁round	-3966
▁journalists	-3967
ague	-3968
▁Cam	-3969
▁art	-3970
state	-3971
▁threats	-3972
▁domestic	-3973
pet	-3974
aded	-3975
▁Sun	-3976
▁inn	-3977
▁Attor	-3978
▁Walker	-3979
▁designed	-3980
Is	-3981
lo	-3982
omm	-3983
▁Who	-3984
▁kids	-3985
▁aware	-3986
▁price	-3987
▁facing	-3988
▁newspa	-3989
▁struct	-3990
▁fighters	-3991
▁Ke	-3992
▁hum	-3993
usion	-3994
▁integ	-3995
▁decade	-3996
▁stated	-3997
▁Although	-3998
▁Attorney	-3999
▁propaganda	-4000
sych	-4001
▁losing	-4002
▁writes	-4003
cow	-4004
▁ep	-4005
ucky	-4006
▁Ste	-4007
▁bab	-4008
▁Mexican	-4009
▁percentage	-4010
ocking	-4011
▁Brown	-4012
▁credit	-4013
uma	-4014
▁tend	-4015
▁launch	-4016
▁launched	-4017
▁Ale	-4018
▁ver	-4019
▁rough	-4020
▁deport	-4021
▁dismiss	-4022
▁helping	-4023
▁responded	-4024
▁reportedly	-4025
gency	-4026
▁bott	-4027
▁diss	-4028
ulated	-4029
▁Assad	-4030
▁broke	-4031
▁clean	-4032
▁learn	-4033
▁required	-4034
cis	-4035
rency	-4036
▁fuel	-4037
▁condu	-4038
▁frequ	-4039
▁signs	-4040
entagon	-4041
▁science	-4042
▁student	-4043
▁services	-4044
hod	-4045
▁1.	-4046
ults	-4047
stein	-4048
▁Like	-4049
▁rout	-4050
▁Earth	-4051
▁Parent	-4052
▁progressive	-4053
”,	-4054
iment	-4055
▁Ariz	-4056
▁looked	-4057
▁deliver	-4058
▁proposed	-4059
▁publicly	-4060
▁constitutional	-4061
sc	-4062
▁dog	-4063
▁none	-4064
▁manager	-4065
▁sometimes	-4066
EN	-4067
onym	-4068
vere	-4069
arter	-4070
▁evil	-4071
▁hosp	-4072
▁endors	-4073
▁experi	-4074
▁technology	-4075
For	-4076
apan	-4077
▁http	-4078
▁wage	-4079
no	-4080
▁bi	-4081
istry	-4082
▁Last	-4083
▁2012,	-4084
▁column	-4085
▁Francis	-4086
▁complex	-4087
▁connect	-4088
▁caucuses	-4089
EO	-4090
ppo	-4091
▁door	-4092
▁2016.	-4093
▁blame	-4094
▁legit	-4095
▁miles	-4096
▁parts	-4097
▁Moscow	-4098
▁easily	-4099
leveland	-4100
▁attacked	-4101
▁eventually	-4102
resp	-4103
▁spend	-4104
▁McCain	-4105
▁Pentagon	-4106
▁incident	-4107
▁conversation	-4108
lad	-4109
▁Mitt	-4110
▁ongoing	-4111
▁presence	-4112
▁Cleveland	-4113
▁professor	-4114
▁successful	-4115
▁potentially	-4116
▁Yes	-4117
▁consc	-4118
▁image	-4119
▁wound	-4120
▁elites	-4121
▁planet	-4122
▁charged	-4123
▁evening	-4124
rol	-4125
care	-4126
▁mig	-4127
▁wat	-4128
▁cash	-4129
▁deeply	-4130
▁knowledge	-4131
▁Hol	-4132
▁Cuba	-4133
▁harm	-4134
▁female	-4135
▁matters	-4136
▁separate	-4137
hib	-4138
ips	-4139
joy	-4140
When	-4141
▁Lou	-4142
gment	-4143
▁partners	-4144
▁surround	-4145
oked	-4146
▁hall	-4147
▁spir	-4148
▁backed	-4149
▁condem	-4150
▁instit	-4151
▁conducted	-4152
▁controversial	-4153
▁ut	-4154
▁Fin	-4155
▁cha	-4156
▁chem	-4157
▁slow	-4158
▁trib	-4159
▁boost	-4160
▁attend	-4161
▁Despite	-4162
▁version	-4163
▁delegate	-4164
vement	-4165
▁Force	-4166
▁Green	-4167
▁indeed	-4168
▁Britain	-4169
▁demonstr	-4170
bur	-4171
▁occup	-4172
▁limited	-4173
▁declined	-4174
class	-4175
icide	-4176
▁brain	-4177
▁receive	-4178
▁towards	-4179
▁impossible	-4180
▁boy	-4181
iction	-4182
▁value	-4183
▁denied	-4184
▁volunt	-4185
▁related	-4186
▁systems	-4187
▁(1	-4188
vent	-4189
▁outs	-4190
▁teac	-4191
▁Capit	-4192
▁Japan	-4193
▁discl	-4194
▁grand	-4195
▁analyst	-4196
fety	-4197
usal	-4198
anced	-4199
irstri	-4200
▁shift	-4201
▁Arizona	-4202
▁familiar	-4203
▁refugees	-4204
gn	-4205
itz	-4206
athe	-4207
▁choose	-4208
▁obvious	-4209
▁minority	-4210
▁opponents	-4211
ole	-4212
urb	-4213
▁mob	-4214
ufact	-4215
itable	-4216
▁disag	-4217
▁grant	-4218
▁notes	-4219
▁Richard	-4220
▁reporter	-4221
AS	-4222
▁Sw	-4223
▁Cath	-4224
▁mand	-4225
▁career	-4226
▁pushed	-4227
▁suggests	-4228
kish	-4229
oyal	-4230
▁Bank	-4231
▁type	-4232
▁Soros	-4233
▁combat	-4234
hic	-4235
▁II	-4236
▁pray	-4237
▁swing	-4238
▁Aleppo	-4239
▁pipeline	-4240
▁9/	-4241
nest	-4242
▁tool	-4243
▁truly	-4244
illance	-4245
▁Former	-4246
apse	-4247
wood	-4248
▁lay	-4249
azine	-4250
▁dream	-4251
▁initi	-4252
▁adviser	-4253
▁failure	-4254
3,	-4255
ait	-4256
ares	-4257
known	-4258
▁2000	-4259
▁rich	-4260
▁voice	-4261
▁critics	-4262
▁consequences	-4263
utm	-4264
▁Ser	-4265
▁Prime	-4266
▁putting	-4267
▁reflect	-4268
▁contract	-4269
▁effective	-4270
Ch	-4271
gr	-4272
earch	-4273
▁emot	-4274
▁nine	-4275
Donald	-4276
▁sched	-4277
▁airstri	-4278
angelical	-4279
▁solution	-4280
raw	-4281
pare	-4282
coming	-4283
▁cycle	-4284
▁deals	-4285
▁season	-4286
▁regarding	-4287
▁generation	-4288
▁fast	-4289
▁hous	-4290
▁earth	-4291
▁moral	-4292
inating	-4293
▁discovered	-4294
▁electorate	-4295
avy	-4296
▁ske	-4297
andon	-4298
ashed	-4299
ulate	-4300
▁Eric	-4301
▁draw	-4302
▁Color	-4303
▁imple	-4304
▁circum	-4305
▁normal	-4306
▁temper	-4307
▁Capitol	-4308
▁practice	-4309
▁businesses	-4310
anks	-4311
hens	-4312
itude	-4313
osure	-4314
▁Mass	-4315
▁save	-4316
▁floor	-4317
▁write	-4318
▁rising	-4319
▁promised	-4320
▁training	-4321
▁unlikely	-4322
DA	-4323
OU	-4324
lines	-4325
▁adop	-4326
ileaks	-4327
▁Major	-4328
▁fired	-4329
▁worry	-4330
resents	-4331
▁played	-4332
adem	-4333
iant	-4334
▁Tom	-4335
▁obt	-4336
arant	-4337
▁shar	-4338
▁caucus	-4339
▁cooper	-4340
▁explos	-4341
▁veterans	-4342
▁Tre	-4343
▁rat	-4344
ghazi	-4345
▁hopes	-4346
▁named	-4347
▁playing	-4348
▁purpose	-4349
▁entirely	-4350
ett	-4351
erved	-4352
raham	-4353
woman	-4354
▁Ange	-4355
▁carried	-4356
how	-4357
omew	-4358
▁Any	-4359
alley	-4360
party	-4361
▁Jeff	-4362
▁aides	-4363
▁exerc	-4364
▁leads	-4365
▁promise	-4366
▁strength	-4367
▁militants	-4368
▁Christians	-4369
▁revolution	-4370
▁politically	-4371
No	-4372
PP	-4373
rs	-4374
rec	-4375
just	-4376
rate	-4377
▁Tim	-4378
▁Thom	-4379
▁basis	-4380
▁stuff	-4381
▁overall	-4382
▁Benghazi	-4383
ortunately	-4384
▁resolution	-4385
▁negotiations	-4386
As	-4387
ery	-4388
▁2.	-4389
lege	-4390
▁aide	-4391
▁tick	-4392
▁Leader	-4393
▁implement	-4394
vant	-4395
▁CIA	-4396
ulian	-4397
▁prefer	-4398
▁secure	-4399
▁conclus	-4400
▁consult	-4401
▁mission	-4402
▁manufact	-4403
▁yourself	-4404
She	-4405
▁lab	-4406
tarian	-4407
▁vehic	-4408
▁gather	-4409
▁neither	-4410
▁absolutely	-4411
▁scientists	-4412
-2	-4413
ika	-4414
▁et	-4415
ixon	-4416
uted	-4417
▁cat	-4418
ctors	-4419
icted	-4420
▁Rand	-4421
▁Vlad	-4422
▁cuts	-4423
▁daughter	-4424
▁direction	-4425
▁Ill	-4426
▁fol	-4427
▁mus	-4428
▁enjoy	-4429
▁recomm	-4430
▁accompl	-4431
▁planned	-4432
▁raising	-4433
▁institutions	-4434
▁investigators	-4435
St	-4436
CNN	-4437
mir	-4438
rible	-4439
▁jail	-4440
▁rall	-4441
▁Louis	-4442
▁Scalia	-4443
▁wonder	-4444
▁confirm	-4445
▁measures	-4446
▁prepared	-4447
▁Mark	-4448
▁2015,	-4449
▁argue	-4450
▁Martin	-4451
▁subsid	-4452
▁conspir	-4453
▁writing	-4454
formation	-4455
▁performance	-4456
och	-4457
▁Sim	-4458
▁scene	-4459
▁Report	-4460
▁investment	-4461
▁understanding	-4462
iced	-4463
lets	-4464
▁1990	-4465
▁link	-4466
▁Chief	-4467
▁daily	-4468
▁winner	-4469
Cl	-4470
rast	-4471
rist	-4472
▁Reg	-4473
▁suc	-4474
ritory	-4475
▁Under	-4476
▁Watch	-4477
▁purch	-4478
▁retur	-4479
▁Robert	-4480
▁effects	-4481
▁condition	-4482
▁foundation	-4483
ube	-4484
inate	-4485
orrow	-4486
▁Jews	-4487
▁walk	-4488
▁desper	-4489
ribution	-4490
▁researc	-4491
▁stopped	-4492
▁effectively	-4493
▁Lew	-4494
▁fle	-4495
▁Chair	-4496
▁lands	-4497
▁throw	-4498
LL	-4499
▁27	-4500
▁TO	-4501
adel	-4502
▁ton	-4503
▁Rock	-4504
ivered	-4505
olling	-4506
▁2016,	-4507
▁dropped	-4508
▁minimum	-4509
▁station	-4510
▁Colorado	-4511
oom	-4512
▁cop	-4513
▁swe	-4514
asing	-4515
▁Only	-4516
istrict	-4517
▁shared	-4518
▁weapon	-4519
▁aircraft	-4520
▁apparently	-4521
▁controversy	-4522
ma	-4523
izes	-4524
▁jih	-4525
▁lie	-4526
raged	-4527
▁army	-4528
▁eyes	-4529
▁solid	-4530
▁method	-4531
▁safety	-4532
▁civilians	-4533
▁highlight	-4534
▁seriously	-4535
▁polarization	-4536
IT	-4537
pri	-4538
imir	-4539
▁fru	-4540
ables	-4541
eches	-4542
▁Rick	-4543
▁narrative	-4544
▁activities	-4545
▁background	-4546
▁ideological	-4547
roud	-4548
▁arm	-4549
▁2014,	-4550
▁Among	-4551
▁psych	-4552
ructure	-4553
▁assess	-4554
▁closer	-4555
▁instance	-4556
▁proposal	-4557
--	-4558
2,	-4559
ara	-4560
road	-4561
▁aid	-4562
▁Jack	-4563
▁prem	-4564
▁School	-4565
▁prices	-4566
▁specif	-4567
▁strike	-4568
▁underst	-4569
▁surveillance	-4570
▁Trans	-4571
▁afford	-4572
▁comprom	-4573
OM	-4574
▁cle	-4575
acing	-4576
▁Kent	-4577
▁asse	-4578
▁wake	-4579
▁custom	-4580
▁reading	-4581
▁Russians	-4582
▁computer	-4583
▁moderate	-4584
▁physical	-4585
▁territory	-4586
▁treatment	-4587
rig	-4588
ancy	-4589
▁hyp	-4590
▁spl	-4591
▁vacc	-4592
illary	-4593
▁stood	-4594
▁tweeted	-4595
▁regulations	-4596
▁/	-4597
phia	-4598
▁Mill	-4599
▁pain	-4600
▁anger	-4601
▁waiting	-4602
▁speeches	-4603
▁represents	-4604
▁26	-4605
ford	-4606
▁Anth	-4607
▁Stud	-4608
▁feat	-4609
ifying	-4610
▁Davis	-4611
▁funds	-4612
▁seeing	-4613
▁College	-4614
▁replace	-4615
▁streets	-4616
▁Vladimir	-4617
▁extremely	-4618
era	-4619
osh	-4620
▁rid	-4621
▁fasc	-4622
▁sens	-4623
▁Offic	-4624
▁emphas	-4625
▁activity	-4626
▁possibly	-4627
▁substant	-4628
▁conditions	-4629
NBC	-4630
uts	-4631
gers	-4632
rass	-4633
▁mount	-4634
▁pledged	-4635
▁Amendment	-4636
▁identified	-4637
▁essentially	-4638
▁fundamental	-4639
▁faces	-4640
▁motiv	-4641
▁prove	-4642
▁Follow	-4643
▁advance	-4644
▁keeping	-4645
▁picture	-4646
inger	-4647
▁Vice	-4648
▁Again	-4649
▁limit	-4650
▁stock	-4651
▁talked	-4652
▁citizen	-4653
rim	-4654
ston	-4655
▁era	-4656
▁vul	-4657
agues	-4658
ounder	-4659
▁Nixon	-4660
▁guarant	-4661
▁approval	-4662
▁watching	-4663
▁standards	-4664
▁Convention	-4665
▁Palestinian	-4666
.-	-4667
nic	-4668
resh	-4669
▁Mer	-4670
▁Pre	-4671
arthy	-4672
▁gain	-4673
▁spot	-4674
▁spread	-4675
adelphia	-4676
▁creating	-4677
▁original	-4678
▁soldiers	-4679
▁destruction	-4680
10	-4681
uk	-4682
rick	-4683
▁tit	-4684
force	-4685
ureau	-4686
▁1980	-4687
▁film	-4688
▁model	-4689
▁Invest	-4690
▁Rights	-4691
▁depart	-4692
▁minister	-4693
▁Read	-4694
▁core	-4695
▁drugs	-4696
▁range	-4697
▁Indeed	-4698
▁estate	-4699
▁refere	-4700
▁command	-4701
▁express	-4702
▁allowing	-4703
▁planning	-4704
▁strongly	-4705
▁Government	-4706
▁Parenthood	-4707
▁increasing	-4708
▁corporations	-4709
ule	-4710
annel	-4711
▁Your	-4712
astern	-4713
inking	-4714
▁About	-4715
▁enter	-4716
▁spect	-4717
▁internal	-4718
▁investigations	-4719
amin	-4720
▁thus	-4721
▁embar	-4722
▁holds	-4723
▁steps	-4724
▁double	-4725
▁Planned	-4726
▁sending	-4727
▁opponent	-4728
▁democratic	-4729
▁Philadelphia	-4730
amb	-4731
cho	-4732
een	-4733
noon	-4734
▁gra	-4735
▁bigger	-4736
▁paying	-4737
▁Research	-4738
▁considering	-4739
EW	-4740
▁Ba	-4741
night	-4742
▁clin	-4743
▁figures	-4744
▁generally	-4745
lant	-4746
pper	-4747
▁Step	-4748
▁deaths	-4749
▁theory	-4750
▁backing	-4751
▁advisers	-4752
rastructure	-4753
▁interesting	-4754
gu	-4755
ille	-4756
nedy	-4757
▁rob	-4758
▁happy	-4759
▁imper	-4760
ception	-4761
▁Africa	-4762
▁Econom	-4763
▁stands	-4764
esterday	-4765
▁appropri	-4766
▁afternoon	-4767
▁destroyed	-4768
hus	-4769
inct	-4770
▁Ark	-4771
▁Mrs	-4772
▁angry	-4773
▁basic	-4774
▁heavy	-4775
▁vision	-4776
▁turning	-4777
▁reporting	-4778
▁endorsement	-4779
ek	-4780
eds	-4781
acle	-4782
life	-4783
▁Smith	-4784
▁unless	-4785
▁balance	-4786
▁confident	-4787
rian	-4788
▁Pak	-4789
▁upd	-4790
▁wel	-4791
rated	-4792
▁coord	-4793
▁somew	-4794
▁expert	-4795
▁journalist	-4796
.),	-4797
ahl	-4798
▁$4	-4799
dden	-4800
rees	-4801
riot	-4802
▁Add	-4803
▁vill	-4804
▁unpre	-4805
▁Anthony	-4806
▁targets	-4807
▁Hispanic	-4808
▁fundraising	-4809
edd	-4810
mod	-4811
▁Up	-4812
ties	-4813
▁Mal	-4814
▁bra	-4815
owing	-4816
▁accus	-4817
▁apart	-4818
▁revel	-4819
▁design	-4820
▁Assange	-4821
▁imagine	-4822
▁property	-4823
▁supporter	-4824
▁dram	-4825
▁drop	-4826
▁cited	-4827
▁Service	-4828
▁starting	-4829
▁Wikileaks	-4830
▁remaining	-4831
▁allegations	-4832
isp	-4833
iser	-4834
▁jump	-4835
▁withd	-4836
▁widely	-4837
▁Kennedy	-4838
▁closely	-4839
▁Kentucky	-4840
▁delivered	-4841
PA	-4842
nam	-4843
▁26,	-4844
▁NSA	-4845
▁Gray	-4846
▁Huma	-4847
▁jihad	-4848
▁match	-4849
orthern	-4850
▁markets	-4851
▁usually	-4852
▁evangelical	-4853
www	-4854
▁Alex	-4855
acific	-4856
▁bottom	-4857
▁prompt	-4858
▁racism	-4859
▁rigged	-4860
▁comfort	-4861
▁succeed	-4862
▁McCarthy	-4863
tah	-4864
▁mer	-4865
▁sle	-4866
▁Super	-4867
▁drive	-4868
▁liter	-4869
ections	-4870
▁sudden	-4871
▁mistake	-4872
▁studies	-4873
▁der	-4874
oviet	-4875
▁Hall	-4876
▁hurt	-4877
▁shif	-4878
▁resol	-4879
▁caught	-4880
▁enemy	-4881
cedented	-4882
▁strikes	-4883
▁politician	-4884
5,	-4885
▁Ra	-4886
ocks	-4887
▁unp	-4888
ranch	-4889
▁symb	-4890
▁Media	-4891
▁https	-4892
issions	-4893
▁slight	-4894
▁offensive	-4895
▁otherwise	-4896
▁sac	-4897
ensus	-4898
▁guys	-4899
▁soft	-4900
▁unus	-4901
timore	-4902
▁folks	-4903
▁loyal	-4904
9.	-4905
▁27,	-4906
▁Kurd	-4907
▁anim	-4908
▁degree	-4909
▁narrow	-4910
▁ticket	-4911
▁roughly	-4912
▁newspaper	-4913
▁Commission	-4914
ien	-4915
▁Tal	-4916
afort	-4917
▁date	-4918
ension	-4919
iation	-4920
▁Latin	-4921
▁names	-4922
▁reduce	-4923
▁remark	-4924
▁maintain	-4925
▁ourselves	-4926
▁colleagues	-4927
▁infrastructure	-4928
upp	-4929
▁ge	-4930
▁fat	-4931
eping	-4932
icial	-4933
uters	-4934
▁sick	-4935
▁smart	-4936
▁intent	-4937
▁abandon	-4938
▁opening	-4939
▁trouble	-4940
▁Pakistan	-4941
▁identity	-4942
▁registered	-4943
▁communications	-4944
oo	-4945
icip	-4946
sels	-4947
▁Nov	-4948
▁pet	-4949
ondon	-4950
▁Korea	-4951
▁brand	-4952
▁assert	-4953
▁bringing	-4954
▁disagree	-4955
▁historic	-4956
▁everybody	-4957
▁appearance	-4958
▁challenges	-4959
▁suggesting	-4960
4,	-4961
ogle	-4962
▁Big	-4963
astic	-4964
▁table	-4965
▁exclus	-4966
▁scenar	-4967
▁ballots	-4968
▁claiming	-4969
▁occurred	-4970
▁Baltimore	-4971
▁protection	-4972
▁relatively	-4973
▁Emp	-4974
▁Mic	-4975
▁Ret	-4976
▁Sur	-4977
▁runs	-4978
▁sees	-4979
▁Brook	-4980
▁faced	-4981
▁Carter	-4982
standing	-4983
▁accounts	-4984
▁breaking	-4985
hat	-4986
▁Get	-4987
▁9/11	-4988
▁Asia	-4989
▁symp	-4990
rating	-4991
▁Guard	-4992
▁borders	-4993
▁Maryland	-4994
.'	-4995
3.	-4996
oms	-4997
that	-4998
▁Rem	-4999
▁blue	-5000
▁rein	-5001
▁proud	-5002
▁feeling	-5003
▁produce	-5004
▁Manafort	-5005
▁shootings	-5006
but	-5007
▁af	-5008
▁ow	-5009
ching	-5010
itors	-5011
which	-5012
▁acqu	-5013
Hillary	-5014
▁decline	-5015
▁heavily	-5016
▁rallies	-5017
▁sitting	-5018
▁contests	-5019
▁greatest	-5020
▁discussed	-5021
▁mentioned	-5022
▁interested	-5023
▁La	-5024
ouri	-5025
roup	-5026
▁surf	-5027
▁zone	-5028
▁Though	-5029
▁dollar	-5030
▁District	-5031
▁determine	-5032
▁ET	-5033
▁CEO	-5034
▁Wal	-5035
▁eye	-5036
▁yes	-5037
▁equal	-5038
▁opened	-5039
▁totally	-5040
▁surprise	-5041
Re	-5042
abee	-5043
▁calc	-5044
▁murd	-5045
00,000	-5046
icious	-5047
▁Georg	-5048
▁autom	-5049
ocument	-5050
▁supply	-5051
▁cultural	-5052
uke	-5053
▁70	-5054
▁Far	-5055
▁Jon	-5056
▁seat	-5057
▁wild	-5058
▁union	-5059
▁Author	-5060
▁consum	-5061
▁elimin	-5062
▁enthus	-5063
▁managed	-5064
▁promises	-5065
▁differences	-5066
uct	-5067
ulf	-5068
▁Wil	-5069
verse	-5070
▁hell	-5071
▁Email	-5072
▁rebels	-5073
▁momentum	-5074
▁produced	-5075
▁obviously	-5076
▁referring	-5077
▁residents	-5078
▁criticized	-5079
bon	-5080
org	-5081
▁$5	-5082
▁Er	-5083
2016	-5084
Russ	-5085
▁Mur	-5086
ipart	-5087
▁acts	-5088
▁hero	-5089
ducing	-5090
▁Click	-5091
▁Human	-5092
▁award	-5093
▁London	-5094
▁videos	-5095
▁admitted	-5096
▁endorsed	-5097
▁straight	-5098
▁airstrikes	-5099
4.	-5100
▁i	-5101
olf	-5102
itely	-5103
▁Kaine	-5104
uckabee	-5105
▁apolog	-5106
▁lawyer	-5107
▁construction	-5108
ean	-5109
▁MS	-5110
▁ded	-5111
▁etc	-5112
oking	-5113
▁swit	-5114
▁wish	-5115
employ	-5116
▁Canada	-5117
▁shouldn	-5118
▁hospital	-5119
▁struggle	-5120
iel	-5121
uild	-5122
▁Rev	-5123
▁sust	-5124
▁color	-5125
Clinton	-5126
liament	-5127
▁instru	-5128
▁Central	-5129
▁options	-5130
▁collapse	-5131
▁peaceful	-5132
▁diplomatic	-5133
ET	-5134
▁hat	-5135
▁bound	-5136
▁belong	-5137
▁constit	-5138
▁turnout	-5139
▁targeted	-5140
▁intention	-5141
▁aggressive	-5142
1.	-5143
isf	-5144
nel	-5145
▁Gar	-5146
▁Care	-5147
▁2012.	-5148
▁Frank	-5149
▁tight	-5150
▁Soviet	-5151
▁crucial	-5152
▁improve	-5153
▁Arkansas	-5154
▁Huckabee	-5155
▁circumst	-5156
ici	-5157
rad	-5158
ores	-5159
pell	-5160
uson	-5161
▁alt	-5162
ronic	-5163
▁Viet	-5164
▁Zika	-5165
▁trip	-5166
▁green	-5167
▁manip	-5168
▁plant	-5169
▁renew	-5170
assador	-5171
▁Second	-5172
▁spirit	-5173
▁machine	-5174
▁Williams	-5175
▁interviews	-5176
rum	-5177
olid	-5178
▁Jes	-5179
▁Pet	-5180
▁mix	-5181
arters	-5182
▁blast	-5183
▁Public	-5184
▁listen	-5185
▁Nations	-5186
▁context	-5187
▁univers	-5188
▁acknowledged	-5189
▁intervention	-5190
▁unprecedented	-5191
icy	-5192
net	-5193
▁194	-5194
▁fram	-5195
▁onto	-5196
▁print	-5197
eration	-5198
erguson	-5199
▁annual	-5200
▁rivals	-5201
▁principl	-5202
▁providing	-5203
▁therefore	-5204
8,	-5205
oly	-5206
▁90	-5207
empt	-5208
▁Once	-5209
▁obst	-5210
▁size	-5211
▁books	-5212
▁dozen	-5213
related	-5214
▁explan	-5215
▁gotten	-5216
▁virtually	-5217
ID	-5218
▁Nor	-5219
▁cas	-5220
▁sun	-5221
inois	-5222
▁north	-5223
▁store	-5224
▁tells	-5225
▁twice	-5226
▁Andrew	-5227
▁divided	-5228
▁missiles	-5229
▁2,	-5230
oles	-5231
▁Kir	-5232
▁Sil	-5233
▁gap	-5234
▁pack	-5235
▁qual	-5236
▁Jones	-5237
▁rapid	-5238
▁sales	-5239
▁urged	-5240
▁forget	-5241
▁vulner	-5242
▁quarter	-5243
▁changing	-5244
▁chemical	-5245
▁strategic	-5246
▁determined	-5247
ND	-5248
bit	-5249
war	-5250
▁Sal	-5251
▁anc	-5252
▁Navy	-5253
▁dict	-5254
▁tone	-5255
▁fresh	-5256
▁ethnic	-5257
▁missile	-5258
▁wealthy	-5259
▁products	-5260
▁reaction	-5261
▁prominent	-5262
▁surprising	-5263
OW	-5264
oes	-5265
arsh	-5266
lied	-5267
lish	-5268
▁Deb	-5269
▁anx	-5270
▁phr	-5271
▁tim	-5272
▁donations	-5273
▁production	-5274
▁strategist	-5275
RU	-5276
look	-5277
▁fit	-5278
anges	-5279
▁fine	-5280
▁filed	-5281
▁guess	-5282
▁Before	-5283
▁Google	-5284
▁desire	-5285
▁Austral	-5286
▁Project	-5287
▁finance	-5288
▁connection	-5289
▁45	-5290
▁Ev	-5291
ogan	-5292
▁sav	-5293
▁thr	-5294
▁Braz	-5295
lected	-5296
▁inequ	-5297
▁prime	-5298
▁affili	-5299
▁causes	-5300
▁retire	-5301
▁volunte	-5302
▁Illinois	-5303
▁attempts	-5304
▁senators	-5305
▁threatened	-5306
2.	-5307
iol	-5308
▁EU	-5309
adow	-5310
place	-5311
▁joint	-5312
▁recru	-5313
▁owners	-5314
▁proven	-5315
▁tempor	-5316
▁arrived	-5317
▁Ferguson	-5318
▁insisted	-5319
▁commitment	-5320
▁Sl	-5321
▁UK	-5322
aming	-5323
▁Reid	-5324
enders	-5325
▁Qaeda	-5326
▁overt	-5327
▁skept	-5328
▁broken	-5329
▁achieve	-5330
ocumented	-5331
▁provides	-5332
▁environmental	-5333
gl	-5334
ze	-5335
kin	-5336
▁NY	-5337
irty	-5338
osen	-5339
▁Prof	-5340
▁Time	-5341
▁Cuban	-5342
▁turns	-5343
▁emerged	-5344
▁proceed	-5345
▁ideology	-5346
▁remained	-5347
▁allegedly	-5348
▁estimated	-5349
▁yesterday	-5350
▁conspiracy	-5351
8.	-5352
▁Em	-5353
assy	-5354
▁Rod	-5355
lease	-5356
▁Inter	-5357
▁bombs	-5358
▁lobby	-5359
▁Thomas	-5360
▁hoping	-5361
▁limits	-5362
▁Turkish	-5363
▁enemies	-5364
win	-5365
▁35	-5366
▁80	-5367
upid	-5368
▁Bur	-5369
▁Del	-5370
▁amid	-5371
▁grab	-5372
▁champ	-5373
▁chaos	-5374
▁paint	-5375
▁incred	-5376
▁unique	-5377
▁Kurdish	-5378
▁realize	-5379
▁suicide	-5380
▁internet	-5381
sp	-5382
iny	-5383
iami	-5384
▁Rec	-5385
▁ult	-5386
acity	-5387
deleg	-5388
icate	-5389
venue	-5390
▁accur	-5391
▁active	-5392
▁easier	-5393
▁sector	-5394
▁veteran	-5395
▁Chairman	-5396
▁articles	-5397
▁favorite	-5398
▁machines	-5399
▁established	-5400
esh	-5401
uzz	-5402
▁3.	-5403
gent	-5404
▁28,	-5405
▁CBS	-5406
▁blog	-5407
▁uses	-5408
▁2015.	-5409
▁aimed	-5410
▁troub	-5411
▁Global	-5412
▁Charlie	-5413
▁disease	-5414
▁tonight	-5415
▁attacking	-5416
▁specifically	-5417
ni	-5418
▁Whe	-5419
erves	-5420
house	-5421
▁Sant	-5422
▁wing	-5423
anging	-5424
▁honor	-5425
▁proof	-5426
igation	-5427
▁engage	-5428
▁Charles	-5429
▁warming	-5430
▁liberals	-5431
rimination	-5432
▁neighborhood	-5433
bo	-5434
uled	-5435
uster	-5436
worth	-5437
▁veto	-5438
istics	-5439
▁Graham	-5440
▁advert	-5441
▁engine	-5442
▁harder	-5443
▁Reuters	-5444
▁contain	-5445
▁Politics	-5446
▁carrying	-5447
▁basically	-5448
15	-5449
My	-5450
obb	-5451
xim	-5452
born	-5453
idel	-5454
▁cry	-5455
▁sch	-5456
works	-5457
▁blow	-5458
▁older	-5459
▁trial	-5460
umerous	-5461
▁bipart	-5462
BT	-5463
▁die	-5464
▁bills	-5465
▁notion	-5466
▁offers	-5467
▁Perhaps	-5468
▁exposed	-5469
▁finding	-5470
▁Internet	-5471
▁function	-5472
AL	-5473
mig	-5474
fire	-5475
▁Los	-5476
▁len	-5477
▁Miami	-5478
▁Church	-5479
▁returns	-5480
▁setting	-5481
▁worried	-5482
▁identify	-5483
▁encourage	-5484
▁researchers	-5485
EL	-5486
aut	-5487
oen	-5488
▁sup	-5489
overy	-5490
▁zero	-5491
lection	-5492
pective	-5493
twitter	-5494
▁Latino	-5495
▁allows	-5496
▁expans	-5497
▁gender	-5498
▁Earlier	-5499
▁unclear	-5500
▁explains	-5501
▁requires	-5502
▁independents	-5503
▁Out	-5504
▁tox	-5505
annon	-5506
icked	-5507
ville	-5508
▁wave	-5509
▁gradu	-5510
respond	-5511
▁compar	-5512
▁English	-5513
▁beliefs	-5514
▁justices	-5515
▁opposite	-5516
rimin	-5517
▁phil	-5518
▁Bloom	-5519
umptive	-5520
▁marked	-5521
▁myself	-5522
▁taxpay	-5523
▁bombing	-5524
▁pattern	-5525
▁magazine	-5526
▁trillion	-5527
▁controlled	-5528
TI	-5529
het	-5530
▁NA	-5531
with	-5532
▁Mag	-5533
▁RNC	-5534
▁mat	-5535
ports	-5536
▁inev	-5537
▁prep	-5538
▁rock	-5539
▁Commun	-5540
▁Ukrain	-5541
▁oppose	-5542
▁disaster	-5543
▁invasion	-5544
▁concluded	-5545
Our	-5546
lor	-5547
uset	-5548
▁fan	-5549
▁mir	-5550
aches	-5551
▁brut	-5552
▁react	-5553
▁speaks	-5554
ervative	-5555
▁broader	-5556
▁tactics	-5557
ablishment	-5558
▁circumstances	-5559
law	-5560
lyn	-5561
obe	-5562
▁Kim	-5563
▁scr	-5564
▁Free	-5565
▁forg	-5566
▁task	-5567
rehens	-5568
usetts	-5569
▁Organ	-5570
▁anonym	-5571
▁Angeles	-5572
▁Georgia	-5573
▁eastern	-5574
▁lawsuit	-5575
achusetts	-5576
▁intended	-5577
▁existence	-5578
▁inequality	-5579
ius	-5580
xit	-5581
News	-5582
otes	-5583
archy	-5584
▁Utah	-5585
▁card	-5586
▁abuse	-5587
▁homes	-5588
itation	-5589
usiness	-5590
▁Source	-5591
▁interpre	-5592
▁offering	-5593
RS	-5594
bre	-5595
iate	-5596
phone	-5597
▁code	-5598
▁nice	-5599
▁2013,	-5600
▁Atlant	-5601
▁flight	-5602
▁affairs	-5603
▁approved	-5604
▁demograph	-5605
▁tradition	-5606
▁23	-5607
evin	-5608
ught	-5609
field	-5610
▁arch	-5611
▁2008,	-5612
▁heads	-5613
▁oblig	-5614
▁photo	-5615
▁weren	-5616
▁checks	-5617
▁extent	-5618
▁liberty	-5619
▁tensions	-5620
▁personally	-5621
So	-5622
rank	-5623
rity	-5624
▁ABC	-5625
ellect	-5626
▁Medic	-5627
▁fewer	-5628
▁usual	-5629
▁academ	-5630
▁acting	-5631
▁retired	-5632
▁traffic	-5633
▁Partners	-5634
▁humanity	-5635
▁longtime	-5636
▁messages	-5637
▁professional	-5638
▁Massachusetts	-5639
bar	-5640
raid	-5641
▁nav	-5642
essor	-5643
ipped	-5644
▁adds	-5645
▁isol	-5646
ighter	-5647
▁Veter	-5648
▁sites	-5649
▁devast	-5650
▁plenty	-5651
▁treated	-5652
▁associated	-5653
ese	-5654
▁Den	-5655
▁Ter	-5656
▁Supp	-5657
▁disg	-5658
▁Eastern	-5659
▁Politico	-5660
▁stronger	-5661
▁supports	-5662
▁complaint	-5663
▁importance	-5664
▁Association	-5665
How	-5666
ems	-5667
▁mate	-5668
▁Agency	-5669
▁courts	-5670
▁merely	-5671
▁disrupt	-5672
▁outrage	-5673
▁bipartisan	-5674
▁presidents	-5675
ears	-5676
long	-5677
▁Sam	-5678
▁map	-5679
▁bare	-5680
▁grew	-5681
▁neoc	-5682
▁Stein	-5683
▁leaves	-5684
▁perpet	-5685
▁victim	-5686
▁covered	-5687
▁conscious	-5688
▁VA	-5689
mark	-5690
▁Mel	-5691
▁box	-5692
▁wis	-5693
▁Zion	-5694
▁resc	-5695
▁ship	-5696
icking	-5697
▁explo	-5698
▁gains	-5699
▁stret	-5700
strated	-5701
▁factor	-5702
▁openly	-5703
▁resign	-5704
▁Missouri	-5705
▁activist	-5706
▁meetings	-5707
▁unemploy	-5708
▁advocates	-5709
▁confidence	-5710
▁Intelligence	-5711
put	-5712
riff	-5713
amber	-5714
uries	-5715
▁cart	-5716
▁tour	-5717
▁optim	-5718
▁persu	-5719
▁quiet	-5720
▁spons	-5721
▁mental	-5722
▁relief	-5723
▁Catholic	-5724
▁commander	-5725
▁developed	-5726
▁proposals	-5727
▁Presidential	-5728
▁ce	-5729
inet	-5730
▁Belg	-5731
▁lived	-5732
▁ruled	-5733
▁split	-5734
▁topic	-5735
▁touch	-5736
▁train	-5737
▁advice	-5738
▁driven	-5739
▁option	-5740
▁orders	-5741
olitical	-5742
▁Reserve	-5743
▁Southern	-5744
▁recognize	-5745
▁Administration	-5746
me	-5747
ters	-5748
▁mic	-5749
▁van	-5750
iscal	-5751
ceived	-5752
▁cance	-5753
▁Policy	-5754
▁overse	-5755
▁unable	-5756
▁ignored	-5757
▁western	-5758
▁opinions	-5759
▁emergency	-5760
fl	-5761
ha	-5762
ivity	-5763
▁Look	-5764
Malley	-5765
unning	-5766
▁Peter	-5767
▁escal	-5768
▁innoc	-5769
▁whites	-5770
▁anybody	-5771
▁engaged	-5772
▁serving	-5773
FO	-5774
aska	-5775
icks	-5776
▁Mad	-5777
▁Ram	-5778
eston	-5779
inner	-5780
isive	-5781
▁Also	-5782
terror	-5783
usalem	-5784
▁aside	-5785
▁please	-5786
▁struck	-5787
▁viewed	-5788
▁dealing	-5789
▁entered	-5790
▁Standing	-5791
▁referred	-5792
▁somebody	-5793
▁transfer	-5794
▁presumptive	-5795
tr	-5796
▁$3	-5797
avor	-5798
under	-5799
▁farm	-5800
▁pund	-5801
herent	-5802
▁draft	-5803
▁revol	-5804
▁seats	-5805
▁aspect	-5806
▁behalf	-5807
▁symbol	-5808
▁Vietnam	-5809
▁answers	-5810
▁moments	-5811
▁businessman	-5812
▁legislative	-5813
ios	-5814
uls	-5815
hips	-5816
armed	-5817
▁roll	-5818
▁Civil	-5819
▁breat	-5820
▁Roberts	-5821
▁factors	-5822
▁somehow	-5823
▁currency	-5824
▁opportunities	-5825
].	-5826
▁fears	-5827
▁obser	-5828
▁scale	-5829
athered	-5830
▁stupid	-5831
quarters	-5832
▁deliber	-5833
▁healthy	-5834
▁transpa	-5835
▁unusual	-5836
▁Majority	-5837
▁accepted	-5838
▁administ	-5839
▁existing	-5840
▁returned	-5841
▁organized	-5842
▁conclusion	-5843
▁disappoint	-5844
▁legitimate	-5845
▁minorities	-5846
▁involvement	-5847
ga	-5848
mun	-5849
▁ally	-5850
▁baby	-5851
▁county	-5852
▁length	-5853
▁rejected	-5854
▁Represent	-5855
▁officially	-5856
AP	-5857
▁Ok	-5858
▁od	-5859
▁sad	-5860
▁Mont	-5861
▁Star	-5862
▁Water	-5863
▁reput	-5864
▁toler	-5865
▁nobody	-5866
▁chances	-5867
▁Bloomberg	-5868
fortunately	-5869
▁restrictions	-5870
▁significantly	-5871
60	-5872
▁Ms	-5873
▁Eth	-5874
▁ads	-5875
▁echo	-5876
▁lady	-5877
▁memo	-5878
▁delay	-5879
▁south	-5880
▁youth	-5881
▁Ronald	-5882
▁afraid	-5883
▁proced	-5884
▁prohib	-5885
▁recall	-5886
infowars	-5887
▁capable	-5888
▁smaller	-5889
▁extraord	-5890
▁defending	-5891
▁principles	-5892
▁resistance	-5893
HS	-5894
gen	-5895
▁AP	-5896
▁leaked	-5897
▁notice	-5898
▁noting	-5899
▁placed	-5900
▁removed	-5901
▁describe	-5902
▁numerous	-5903
▁Jerusalem	-5904
▁emissions	-5905
▁immediate	-5906
▁historical	-5907
5.	-5908
ban	-5909
ils	-5910
cles	-5911
▁Web	-5912
ected	-5913
prise	-5914
henomen	-5915
▁depend	-5916
▁legacy	-5917
▁wearing	-5918
▁exercise	-5919
▁subsidies	-5920
RC	-5921
rey	-5922
arge	-5923
illy	-5924
onna	-5925
roll	-5926
▁NOT	-5927
▁tort	-5928
▁arguing	-5929
▁injured	-5930
▁scrutin	-5931
▁session	-5932
▁integrity	-5933
6.	-5934
▁Ac	-5935
alty	-5936
▁dyn	-5937
▁lit	-5938
▁Back	-5939
▁craz	-5940
atures	-5941
▁begun	-5942
▁entit	-5943
▁panel	-5944
▁Posted	-5945
▁convin	-5946
▁remove	-5947
▁hopeful	-5948
▁intense	-5949
▁lawyers	-5950
▁regional	-5951
imb	-5952
met	-5953
aped	-5954
iana	-5955
▁trig	-5956
▁Artic	-5957
▁crack	-5958
▁shape	-5959
▁Bureau	-5960
▁carbon	-5961
▁dozens	-5962
▁founder	-5963
▁Campaign	-5964
▁Charleston	-5965
▁originally	-5966
▁experienced	-5967
!!	-5968
▁AT	-5969
▁IN	-5970
ifth	-5971
ilty	-5972
claim	-5973
comes	-5974
oston	-5975
▁grown	-5976
▁kinds	-5977
ingrich	-5978
unction	-5979
▁attract	-5980
▁demonst	-5981
TON	-5982
hand	-5983
ordan	-5984
▁feed	-5985
▁chose	-5986
▁domin	-5987
▁abroad	-5988
▁cutting	-5989
▁millenn	-5990
delegates	-5991
▁phenomen	-5992
▁pointing	-5993
▁inflation	-5994
▁predicted	-5995
▁(2	-5996
▁$10	-5997
▁Park	-5998
▁deny	-5999
▁laid	-6000
▁2014.	-6001
▁enorm	-6002
▁races	-6003
▁Ukrainian	-6004
▁dismissed	-6005
▁elsewhere	-6006
▁suffering	-6007
▁questioned	-6008
inn	-6009
vis	-6010
ests	-6011
▁Red	-6012
▁gri	-6013
lands	-6014
▁cere	-6015
▁assum	-6016
▁Jordan	-6017
▁Secret	-6018
▁ignore	-6019
▁Without	-6020
abilities	-6021
▁Gingrich	-6022
▁Speaking	-6023
▁intellect	-6024
▁recommend	-6025
▁continuing	-6026
▁explanation	-6027
40	-6028
OL	-6029
odies	-6030
▁amaz	-6031
▁coast	-6032
▁forth	-6033
▁probe	-6034
iveness	-6035
ordable	-6036
▁Boston	-6037
▁Brexit	-6038
▁Nation	-6039
▁Native	-6040
▁escape	-6041
leground	-6042
▁banking	-6043
▁doctors	-6044
▁judgment	-6045
▁campaigning	-6046
▁undocumented	-6047
PR	-6048
ns	-6049
▁Kh	-6050
▁vac	-6051
oters	-6052
▁Cold	-6053
▁Josh	-6054
rolled	-6055
▁equip	-6056
▁goals	-6057
▁fiscal	-6058
▁thanks	-6059
▁ordered	-6060
▁precise	-6061
▁watched	-6062
▁attended	-6063
▁civilian	-6064
▁populist	-6065
▁arguments	-6066
▁convinced	-6067
▁involving	-6068
▁necessarily	-6069
▁perspective	-6070
udd	-6071
▁DO	-6072
▁Abd	-6073
▁hur	-6074
▁unw	-6075
verty	-6076
▁rare	-6077
▁hotel	-6078
▁style	-6079
▁Wilson	-6080
▁driving	-6081
▁poverty	-6082
▁Homeland	-6083
▁anywhere	-6084
▁healthcare	-6085
▁surrounding	-6086
Bl	-6087
icop	-6088
mony	-6089
▁Poll	-6090
▁east	-6091
▁sole	-6092
▁laugh	-6093
russels	-6094
▁Please	-6095
▁linked	-6096
▁writer	-6097
▁Affairs	-6098
▁initial	-6099
▁Republic	-6100
▁gathered	-6101
▁terrible	-6102
▁attempted	-6103
▁criminals	-6104
▁exchanges	-6105
▁reference	-6106
▁correspond	-6107
▁definitely	-6108
▁discussions	-6109
ande	-6110
iful	-6111
irms	-6112
pass	-6113
▁mal	-6114
ollar	-6115
ophob	-6116
oving	-6117
▁Jose	-6118
▁mark	-6119
profit	-6120
▁newly	-6121
▁Michel	-6122
▁pulled	-6123
vernment	-6124
▁outlets	-6125
▁readers	-6126
▁expansion	-6127
▁immigrant	-6128
▁practices	-6129
▁collection	-6130
otic	-6131
rier	-6132
attle	-6133
▁coup	-6134
▁ends	-6135
▁Group	-6136
▁Moore	-6137
▁assets	-6138
▁stance	-6139
▁display	-6140
▁scenario	-6141
▁Political	-6142
▁districts	-6143
▁embarrass	-6144
▁initially	-6145
▁structure	-6146
bel	-6147
arre	-6148
▁Call	-6149
▁plus	-6150
▁Holly	-6151
▁minds	-6152
▁secre	-6153
▁married	-6154
▁selling	-6155
▁suspects	-6156
▁establish	-6157
▁literally	-6158
MP	-6159
ko	-6160
EWS	-6161
ams	-6162
▁Gi	-6163
oval	-6164
▁Gree	-6165
▁Such	-6166
▁lots	-6167
▁error	-6168
▁finds	-6169
▁divide	-6170
▁digital	-6171
▁housing	-6172
▁quality	-6173
▁Brussels	-6174
▁Ministry	-6175
▁Moreover	-6176
▁regularly	-6177
▁scheduled	-6178
ENT	-6179
hab	-6180
idi	-6181
▁43	-6182
▁Jr	-6183
hran	-6184
▁insp	-6185
▁spin	-6186
▁alien	-6187
▁drawn	-6188
▁blamed	-6189
▁deputy	-6190
▁fought	-6191
▁passion	-6192
▁creation	-6193
▁industrial	-6194
▁investigating	-6195
mad	-6196
burg	-6197
ultz	-6198
▁Sea	-6199
▁Gulf	-6200
▁exit	-6201
▁jury	-6202
▁rape	-6203
▁Asked	-6204
▁insult	-6205
▁Jackson	-6206
▁anymore	-6207
▁concept	-6208
▁passing	-6209
▁meanwhile	-6210
▁reputation	-6211
▁complicated	-6212
▁headquarters	-6213
oe	-6214
wr	-6215
uous	-6216
▁Bob	-6217
▁Nob	-6218
▁Sub	-6219
▁avo	-6220
▁ble	-6221
▁bias	-6222
▁clar	-6223
▁male	-6224
▁reop	-6225
person	-6226
▁Which	-6227
▁colon	-6228
▁moves	-6229
▁Columb	-6230
▁guilty	-6231
▁choices	-6232
▁demands	-6233
▁legally	-6234
▁networks	-6235
▁northern	-6236
▁targeting	-6237
▁prosecutor	-6238
▁threatening	-6239
▁Congressional	-6240
GBT	-6241
free	-6242
olen	-6243
eless	-6244
rayed	-6245
▁2009	-6246
▁Does	-6247
▁Prot	-6248
▁Real	-6249
▁flee	-6250
encing	-6251
▁vowed	-6252
▁Tehran	-6253
▁perman	-6254
▁Goldman	-6255
▁granted	-6256
▁partner	-6257
▁Governor	-6258
▁Veterans	-6259
▁entering	-6260
▁relevant	-6261
▁equipment	-6262
▁socialist	-6263
▁transport	-6264
▁discrimination	-6265
nger	-6266
rive	-6267
▁sam	-6268
ether	-6269
▁ISIL	-6270
▁edge	-6271
▁odds	-6272
▁2008.	-6273
▁2011,	-6274
▁Perry	-6275
▁Three	-6276
▁medic	-6277
umption	-6278
▁Island	-6279
▁phrase	-6280
▁Further	-6281
▁missing	-6282
▁defended	-6283
▁addressed	-6284
▁transform	-6285
▁Affordable	-6286
▁comprehens	-6287
▁permission	-6288
,'	-6289
500	-6290
ala	-6291
aug	-6292
▁Us	-6293
arms	-6294
ware	-6295
▁Dis	-6296
▁gar	-6297
asury	-6298
▁Gore	-6299
▁Hist	-6300
ateral	-6301
▁Sever	-6302
▁sharp	-6303
▁chosen	-6304
▁warrant	-6305
▁wounded	-6306
▁patients	-6307
▁consistent	-6308
▁competition	-6309
▁battleground	-6310
▁humanitarian	-6311
NA	-6312
Oh	-6313
aur	-6314
fly	-6315
▁Fe	-6316
Care	-6317
HING	-6318
ateg	-6319
▁cab	-6320
▁Good	-6321
▁intim	-6322
▁shout	-6323
leaning	-6324
▁assass	-6325
▁overth	-6326
▁stress	-6327
▁embrace	-6328
▁Business	-6329
▁projects	-6330
▁thoughts	-6331
▁recognized	-6332
!"	-6333
izab	-6334
rous	-6335
▁Det	-6336
attan	-6337
wards	-6338
▁Port	-6339
▁MSNBC	-6340
▁Mitch	-6341
▁toxic	-6342
▁users	-6343
▁wages	-6344
▁deadly	-6345
▁plants	-6346
▁license	-6347
▁promote	-6348
▁ratings	-6349
▁routine	-6350
▁younger	-6351
▁captured	-6352
▁entertain	-6353
▁presented	-6354
▁protecting	-6355
▁accusations	-6356
iy	-6357
ags	-6358
odd	-6359
▁SH	-6360
atab	-6361
gate	-6362
▁Les	-6363
▁sea	-6364
astro	-6365
owski	-6366
▁lying	-6367
▁select	-6368
▁unions	-6369
▁Retired	-6370
▁prepare	-6371
▁constitu	-6372
▁enormous	-6373
▁slightly	-6374
▁Hollywood	-6375
▁gathering	-6376
▁assistance	-6377
▁developing	-6378
▁appropriate	-6379
▁representative	-6380
ups	-6381
who	-6382
▁Tru	-6383
▁boss	-6384
▁drew	-6385
▁feet	-6386
▁plot	-6387
pected	-6388
▁Steve	-6389
izabeth	-6390
▁apprec	-6391
▁intens	-6392
▁myster	-6393
▁philos	-6394
▁tenure	-6395
▁testim	-6396
▁weight	-6397
▁Schultz	-6398
▁concent	-6399
▁diverse	-6400
▁unknown	-6401
▁capacity	-6402
▁informed	-6403
▁suddenly	-6404
▁broadcast	-6405
▁cooperation	-6406
▁spokeswoman	-6407
iqu	-6408
olar	-6409
pers	-6410
▁29,	-6411
▁Cur	-6412
▁Did	-6413
▁Hel	-6414
▁TRU	-6415
adian	-6416
regon	-6417
▁bond	-6418
▁mort	-6419
▁pool	-6420
▁grass	-6421
▁anyway	-6422
▁filled	-6423
▁proved	-6424
▁satisf	-6425
▁Network	-6426
▁Whether	-6427
▁shutdown	-6428
▁indicated	-6429
▁compromise	-6430
▁definition	-6431
▁frequently	-6432
▁introduced	-6433
-3	-6434
ipp	-6435
oto	-6436
ugg	-6437
elect	-6438
pread	-6439
▁cert	-6440
▁trem	-6441
▁Arabs	-6442
▁ignor	-6443
ributed	-6444
▁images	-6445
▁Support	-6446
▁airport	-6447
▁contrad	-6448
▁licenses	-6449
▁migrants	-6450
▁suffered	-6451
▁withdraw	-6452
▁conflicts	-6453
▁agreements	-6454
RA	-6455
All	-6456
amm	-6457
lan	-6458
▁Op	-6459
▁McM	-6460
▁1970	-6461
▁elig	-6462
▁Power	-6463
▁mayor	-6464
▁shall	-6465
content	-6466
▁citing	-6467
▁fourth	-6468
▁photos	-6469
▁sovere	-6470
▁Several	-6471
idespread	-6472
▁equality	-6473
▁scandals	-6474
▁consensus	-6475
▁operating	-6476
▁everywhere	-6477
▁transition	-6478
▁Unfortunately	-6479
asp	-6480
Tube	-6481
atar	-6482
held	-6483
vard	-6484
▁Heb	-6485
▁haw	-6486
▁2007	-6487
▁neur	-6488
▁puts	-6489
▁spar	-6490
▁feels	-6491
▁guard	-6492
▁Oregon	-6493
▁reforms	-6494
▁brothers	-6495
▁employee	-6496
▁Elizabeth	-6497
▁employment	-6498
▁reasonable	-6499
▁vulnerable	-6500
▁superdelegates	-6501
hon	-6502
▁4.	-6503
▁CL	-6504
▁Da	-6505
▁Gr	-6506
▁OF	-6507
ifer	-6508
▁IRS	-6509
▁TPP	-6510
▁quo	-6511
5,000	-6512
ework	-6513
▁Span	-6514
▁Brian	-6515
▁Sunni	-6516
▁Action	-6517
▁Common	-6518
▁amounts	-6519
▁closing	-6520
▁deserve	-6521
▁helicop	-6522
▁offices	-6523
▁somewhat	-6524
▁citizenship	-6525
TA	-6526
▁Sar	-6527
▁rub	-6528
idden	-6529
isans	-6530
▁Holl	-6531
▁Make	-6532
▁cler	-6533
▁fort	-6534
▁inqu	-6535
▁catch	-6536
▁types	-6537
▁Julian	-6538
▁famous	-6539
▁master	-6540
▁Special	-6541
▁monitor	-6542
▁focusing	-6543
▁striking	-6544
▁expensive	-6545
▁principle	-6546
▁surprised	-6547
▁commission	-6548
▁regardless	-6549
▁consistently	-6550
▁overwhelming	-6551
-4	-6552
22	-6553
OS	-6554
▁Haw	-6555
Every	-6556
agger	-6557
opular	-6558
▁forms	-6559
▁girls	-6560
▁unity	-6561
▁begins	-6562
▁profit	-6563
▁silver	-6564
▁degrees	-6565
▁failing	-6566
▁Egyptian	-6567
▁combined	-6568
▁ultimate	-6569
▁Palestine	-6570
▁illegally	-6571
▁seemingly	-6572
To	-6573
bing	-6574
chan	-6575
orum	-6576
▁eld	-6577
▁Gary	-6578
▁Hold	-6579
▁LGBT	-6580
▁frust	-6581
▁risks	-6582
mercial	-6583
▁earned	-6584
▁revers	-6585
▁champion	-6586
▁obtained	-6587
▁preparing	-6588
▁scientific	-6589
99	-6590
VE	-6591
gar	-6592
iest	-6593
onom	-6594
uana	-6595
▁Its	-6596
▁pil	-6597
▁piv	-6598
▁duty	-6599
▁mail	-6600
▁tied	-6601
ounced	-6602
▁alive	-6603
▁analy	-6604
▁stick	-6605
▁assume	-6606
▁streng	-6607
fficient	-6608
▁survive	-6609
▁explicit	-6610
▁imperial	-6611
▁connected	-6612
▁personnel	-6613
▁suspected	-6614
▁extraordinary	-6615
%.	-6616
za	-6617
tta	-6618
▁31	-6619
▁AC	-6620
greg	-6621
▁Pers	-6622
▁soul	-6623
▁apply	-6624
▁datab	-6625
▁label	-6626
portion	-6627
▁alliance	-6628
▁findings	-6629
▁rational	-6630
Ass	-6631
can	-6632
▁29	-6633
iban	-6634
uine	-6635
▁Ber	-6636
▁mog	-6637
olved	-6638
ulous	-6639
utral	-6640
▁Cauc	-6641
▁cold	-6642
▁lapt	-6643
▁pure	-6644
▁chart	-6645
▁dynam	-6646
▁likes	-6647
▁posts	-6648
▁Change	-6649
▁argues	-6650
▁shortly	-6651
Americans	-6652
▁staffers	-6653
▁challenged	-6654
▁participate	-6655
hew	-6656
ola	-6657
▁AM	-6658
▁Imp	-6659
▁Rad	-6660
▁Spr	-6661
▁Veg	-6662
▁mos	-6663
power	-6664
▁burd	-6665
▁cars	-6666
▁dump	-6667
▁gang	-6668
earing	-6669
istent	-6670
▁Crime	-6671
▁Where	-6672
▁forum	-6673
▁giant	-6674
▁shock	-6675
▁Cooper	-6676
▁adults	-6677
▁conven	-6678
▁picked	-6679
▁couples	-6680
▁billions	-6681
▁examples	-6682
▁governors	-6683
▁understood	-6684
▁university	-6685
▁widespread	-6686
ald	-6687
roc	-6688
▁3,	-6689
▁ON	-6690
ogue	-6691
▁Dou	-6692
rific	-6693
▁hide	-6694
▁welf	-6695
author	-6696
▁Vegas	-6697
▁Women	-6698
▁keeps	-6699
▁ridic	-6700
▁seized	-6701
▁Spanish	-6702
▁YouTube	-6703
▁courage	-6704
▁Medicare	-6705
▁advanced	-6706
▁convince	-6707
▁opposing	-6708
▁contained	-6709
▁undermine	-6710
▁parliament	-6711
▁challenging	-6712
▁comprehensive	-6713
37	-6714
Ob	-6715
ula	-6716
▁Sn	-6717
iagn	-6718
▁Ann	-6719
▁Mil	-6720
actions	-6721
osphere	-6722
▁hatred	-6723
▁judges	-6724
▁Earnest	-6725
▁welfare	-6726
▁violation	-6727
fare	-6728
▁Ten	-6729
abama	-6730
atism	-6731
orted	-6732
wered	-6733
▁Ford	-6734
▁Life	-6735
▁Mount	-6736
▁Bannon	-6737
▁Matter	-6738
▁Others	-6739
▁manner	-6740
inations	-6741
▁ancient	-6742
▁heading	-6743
▁knowing	-6744
▁directed	-6745
▁southern	-6746
▁emotional	-6747
▁followers	-6748
▁protected	-6749
▁acknowledge	-6750
RI	-6751
itb	-6752
▁Lind	-6753
▁bull	-6754
ijuana	-6755
▁Asian	-6756
▁Judge	-6757
▁crash	-6758
▁quote	-6759
▁solar	-6760
isement	-6761
▁blacks	-6762
▁bodies	-6763
▁mechan	-6764
▁rating	-6765
▁reveal	-6766
▁pundits	-6767
▁elements	-6768
▁desperate	-6769
▁incidents	-6770
▁typically	-6771
▁investigate	-6772
▁conventional	-6773
▁expectations	-6774
▁’	-6775
ker	-6776
oves	-6777
▁Las	-6778
These	-6779
arted	-6780
nergy	-6781
oming	-6782
▁Mate	-6783
▁tape	-6784
lessly	-6785
▁helps	-6786
▁deeper	-6787
▁pledge	-6788
▁produc	-6789
▁shares	-6790
Infowars	-6791
▁falling	-6792
▁praised	-6793
▁overseas	-6794
▁increases	-6795
▁observers	-6796
At	-6797
ani	-6798
igen	-6799
▁Pew	-6800
▁tom	-6801
icing	-6802
▁High	-6803
▁Huff	-6804
backed	-6805
ribute	-6806
▁cyber	-6807
▁donor	-6808
▁sight	-6809
▁tests	-6810
ulating	-6811
▁fairly	-6812
▁handle	-6813
▁reluct	-6814
▁shadow	-6815
▁Science	-6816
▁Taliban	-6817
▁handful	-6818
▁invited	-6819
▁mandate	-6820
▁Australia	-6821
▁household	-6822
▁collective	-6823
▁Palestinians	-6824
On	-6825
sm	-6826
yp	-6827
▁Mu	-6828
▁Leg	-6829
▁kid	-6830
lando	-6831
order	-6832
othes	-6833
▁bold	-6834
▁toug	-6835
itbart	-6836
▁admit	-6837
▁loses	-6838
▁movie	-6839
▁schem	-6840
▁uncom	-6841
ogether	-6842
▁Miller	-6843
▁nearby	-6844
▁pursue	-6845
▁stream	-6846
▁transl	-6847
▁Alabama	-6848
▁Related	-6849
▁dismant	-6850
▁follows	-6851
▁genuine	-6852
▁analysts	-6853
▁vehicles	-6854
government	-6855
▁Professor	-6856
ILL	-6857
oma	-6858
▁Ay	-6859
▁du	-6860
irds	-6861
outs	-6862
real	-6863
▁End	-6864
▁Inc	-6865
▁vig	-6866
apper	-6867
essed	-6868
▁joke	-6869
▁loud	-6870
▁math	-6871
▁west	-6872
ington	-6873
▁badly	-6874
▁mogul	-6875
ilitary	-6876
▁camera	-6877
▁ending	-6878
idelines	-6879
▁Michelle	-6880
▁announce	-6881
▁handling	-6882
▁Louisiana	-6883
▁movements	-6884
▁overwhelm	-6885
);	-6886
Pe	-6887
Rep	-6888
ads	-6889
rud	-6890
▁WH	-6891
achs	-6892
mond	-6893
orry	-6894
▁Mod	-6895
aware	-6896
there	-6897
▁Fred	-6898
▁Lore	-6899
▁lean	-6900
▁Lives	-6901
▁rural	-6902
▁tools	-6903
jection	-6904
▁Empire	-6905
▁signal	-6906
▁skills	-6907
▁Orlando	-6908
▁counsel	-6909
▁expanded	-6910
▁reaching	-6911
▁scrutiny	-6912
▁consumers	-6913
▁editorial	-6914
▁phenomenon	-6915
▁retirement	-6916
▁struggling	-6917
▁unemployment	-6918
MA	-6919
aver	-6920
enez	-6921
▁Pope	-6922
▁Carly	-6923
▁agent	-6924
▁fault	-6925
▁stake	-6926
▁surge	-6927
ainable	-6928
▁dinner	-6929
▁headed	-6930
▁premium	-6931
▁Canadian	-6932
▁detailed	-6933
▁extremist	-6934
▁primarily	-6935
▁destroying	-6936
▁facilities	-6937
▁competitive	-6938
ls	-6939
▁PL	-6940
athy	-6941
shed	-6942
▁cro	-6943
rence	-6944
white	-6945
▁Bash	-6946
▁embr	-6947
▁heat	-6948
▁skin	-6949
icient	-6950
▁Board	-6951
▁Child	-6952
▁hardly	-6953
▁unfair	-6954
▁England	-6955
▁adopted	-6956
▁anticip	-6957
▁privile	-6958
▁replied	-6959
▁subsequ	-6960
▁priority	-6961
▁customers	-6962
▁contributions	-6963
.4	-6964
aki	-6965
aus	-6966
ocal	-6967
▁Bet	-6968
▁tea	-6969
▁Core	-6970
▁Thus	-6971
▁brid	-6972
▁file	-6973
making	-6974
mitted	-6975
orough	-6976
▁2013.	-6977
cluding	-6978
▁Voting	-6979
▁brings	-6980
▁exists	-6981
▁fallen	-6982
▁finish	-6983
▁taught	-6984
cription	-6985
▁deficit	-6986
▁restaur	-6987
▁tremend	-6988
▁vehicle	-6989
▁visited	-6990
▁refusing	-6991
▁guarantee	-6992
▁testimony	-6993
▁Libertarian	-6994
▁questioning	-6995
ml	-6996
rac	-6997
▁11,	-6998
▁Fam	-6999
▁bed	-7000
▁Show	-7001
▁bure	-7002
ancing	-7003
racted	-7004
▁Never	-7005
▁Sachs	-7006
▁flood	-7007
▁Energy	-7008
▁observ	-7009
▁spring	-7010
asserman	-7011
▁Bernard	-7012
▁Harvard	-7013
▁refugee	-7014
▁section	-7015
▁Economic	-7016
▁innocent	-7017
▁ordinary	-7018
▁management	-7019
▁comfortable	-7020
▁revelations	-7021
)[	-7022
12	-7023
80	-7024
TS	-7025
oz	-7026
usse	-7027
▁31,	-7028
▁Mac	-7029
▁Pen	-7030
▁vit	-7031
▁king	-7032
rators	-7033
▁Stone	-7034
▁upset	-7035
▁valid	-7036
present	-7037
▁preced	-7038
▁refuse	-7039
▁Article	-7040
▁hostile	-7041
▁penalty	-7042
▁receiving	-7043
▁nominating	-7044
▁connections	-7045
xy	-7046
asty	-7047
kins	-7048
lers	-7049
rill	-7050
▁Dec	-7051
athan	-7052
mails	-7053
▁Left	-7054
▁Oval	-7055
▁Take	-7056
▁burn	-7057
▁fake	-7058
▁Labor	-7059
▁categ	-7060
▁inner	-7061
▁solve	-7062
▁sounds	-7063
▁traged	-7064
▁Comment	-7065
▁intimid	-7066
▁sharing	-7067
▁electric	-7068
▁upcoming	-7069
▁Breitbart	-7070
▁attempting	-7071
▁fundraiser	-7072
▁conversations	-7073
eah	-7074
▁RT	-7075
cell	-7076
iege	-7077
▁Exp	-7078
▁Ins	-7079
reach	-7080
▁Club	-7081
▁Fund	-7082
▁diet	-7083
▁warm	-7084
▁Given	-7085
▁Jason	-7086
▁Qatar	-7087
▁loved	-7088
▁pharm	-7089
ictions	-7090
▁inquir	-7091
▁suprem	-7092
▁neocons	-7093
▁Santorum	-7094
▁deployed	-7095
▁Wasserman	-7096
▁contested	-7097
▁demanding	-7098
ghd	-7099
kel	-7100
▁DC	-7101
gram	-7102
▁Has	-7103
▁Hen	-7104
▁See	-7105
inter	-7106
maker	-7107
▁suit	-7108
▁unex	-7109
acking	-7110
ashion	-7111
▁trick	-7112
▁summit	-7113
▁surely	-7114
▁walked	-7115
▁backers	-7116
▁bureauc	-7117
▁encoura	-7118
▁players	-7119
▁sentence	-7120
▁marijuana	-7121
▁libertarian	-7122
jud	-7123
vey	-7124
▁33	-7125
abil	-7126
fund	-7127
▁Mem	-7128
▁UFO	-7129
▁Van	-7130
▁eat	-7131
▁mut	-7132
▁Four	-7133
▁club	-7134
▁fees	-7135
▁flat	-7136
ipping	-7137
ulture	-7138
▁Front	-7139
▁crazy	-7140
▁ought	-7141
▁beings	-7142
▁worker	-7143
ilateral	-7144
▁surface	-7145
▁trained	-7146
▁Treasury	-7147
▁outright	-7148
▁overcome	-7149
▁Revolution	-7150
14	-7151
eal	-7152
▁ho	-7153
▁Top	-7154
▁bes	-7155
▁bub	-7156
erate	-7157
ilipp	-7158
▁1960	-7159
▁crow	-7160
▁slam	-7161
▁cheap	-7162
▁speed	-7163
igenous	-7164
▁Mateen	-7165
▁doctor	-7166
▁harass	-7167
▁stolen	-7168
▁dispute	-7169
▁neutral	-7170
ibilities	-7171
▁thousand	-7172
▁solutions	-7173
def	-7174
▁Ren	-7175
▁Ron	-7176
▁Sus	-7177
etary	-7178
utive	-7179
▁fate	-7180
▁Moham	-7181
▁blind	-7182
ructive	-7183
▁bought	-7184
▁amazing	-7185
▁equally	-7186
▁inspect	-7187
▁Progress	-7188
▁feelings	-7189
▁location	-7190
▁weakness	-7191
▁ObamaCare	-7192
▁promoting	-7193
▁nationwide	-7194
▁interviewed	-7195
▁represented	-7196
ux	-7197
▁7,	-7198
▁vs	-7199
eria	-7200
▁Way	-7201
/2016	-7202
ierce	-7203
istle	-7204
style	-7205
▁Educ	-7206
▁fill	-7207
▁Maybe	-7208
▁River	-7209
▁Somet	-7210
▁hired	-7211
▁thank	-7212
essions	-7213
▁conced	-7214
▁hosted	-7215
▁spoken	-7216
▁discipl	-7217
▁Atlantic	-7218
▁militant	-7219
▁promising	-7220
▁victories	-7221
iev	-7222
imp	-7223
lah	-7224
rav	-7225
ship	-7226
conds	-7227
▁Khan	-7228
▁hunt	-7229
▁Kevin	-7230
▁Mayor	-7231
▁boast	-7232
▁march	-7233
▁Access	-7234
▁Brazil	-7235
▁height	-7236
▁raises	-7237
▁starts	-7238
▁Connect	-7239
▁Through	-7240
▁anxiety	-7241
▁rapidly	-7242
▁variety	-7243
▁welcome	-7244
▁Comments	-7245
▁distance	-7246
▁nominees	-7247
▁requests	-7248
▁teachers	-7249
▁technical	-7250
▁representatives	-7251
%,	-7252
ERE	-7253
Let	-7254
mas	-7255
phy	-7256
hour	-7257
list	-7258
pair	-7259
▁Hit	-7260
▁sky	-7261
ailed	-7262
lined	-7263
▁reck	-7264
▁Immig	-7265
▁lever	-7266
▁Lesley	-7267
▁barely	-7268
▁borrow	-7269
▁buying	-7270
▁extend	-7271
▁latter	-7272
▁repeal	-7273
▁Loretta	-7274
▁channel	-7275
▁devices	-7276
▁extended	-7277
▁framework	-7278
▁prisoners	-7279
▁discussing	-7280
▁encouraged	-7281
▁priorities	-7282
▁volunteers	-7283
▁Information	-7284
▁credibility	-7285
▁devastating	-7286
▁ju	-7287
gged	-7288
▁DOJ	-7289
urers	-7290
▁Harry	-7291
▁hoped	-7292
osition	-7293
▁pieces	-7294
▁quoted	-7295
▁alongside	-7296
▁sensitive	-7297
▁communication	-7298
rie	-7299
ura	-7300
arry	-7301
mind	-7302
ndum	-7303
omin	-7304
▁Coal	-7305
▁Conf	-7306
▁crew	-7307
▁impe	-7308
▁magn	-7309
▁tank	-7310
People	-7311
health	-7312
▁Jesus	-7313
▁Trade	-7314
▁frank	-7315
▁micro	-7316
▁owned	-7317
▁shots	-7318
▁stuck	-7319
▁tired	-7320
▁exceed	-7321
▁indict	-7322
▁native	-7323
▁Matthew	-7324
▁Society	-7325
▁pressed	-7326
▁database	-7327
▁eligible	-7328
▁stressed	-7329
▁convicted	-7330
▁economics	-7331
▁provision	-7332
▁commercial	-7333
▁inevitable	-7334
▁remarkable	-7335
▁consciousness	-7336
hi	-7337
▁.”	-7338
▁5,	-7339
▁5.	-7340
▁8,	-7341
▁Ho	-7342
▁ST	-7343
alsh	-7344
▁Att	-7345
▁mil	-7346
cribe	-7347
gging	-7348
itage	-7349
month	-7350
▁Move	-7351
isters	-7352
▁cease	-7353
▁doors	-7354
▁recon	-7355
profile	-7356
▁empire	-7357
▁memory	-7358
▁minute	-7359
▁severe	-7360
▁surrog	-7361
▁defined	-7362
▁formally	-7363
▁realized	-7364
▁condemned	-7365
▁journalism	-7366
▁Partnership	-7367
▁negotiating	-7368
▁(“	-7369
▁4,	-7370
html	-7371
Assad	-7372
▁Fort	-7373
▁Hind	-7374
▁iron	-7375
▁stor	-7376
50,000	-7377
lahoma	-7378
nation	-7379
uliani	-7380
▁Order	-7381
▁enact	-7382
▁music	-7383
▁units	-7384
enezuel	-7385
▁Caucus	-7386
▁crowds	-7387
▁Pacific	-7388
▁Philipp	-7389
▁Wallace	-7390
▁compell	-7391
▁affected	-7392
▁covering	-7393
▁finished	-7394
▁judicial	-7395
▁purposes	-7396
▁recorded	-7397
▁profession	-7398
▁tremendous	-7399
LE	-7400
tra	-7401
rint	-7402
take	-7403
▁fed	-7404
▁ice	-7405
abled	-7406
brain	-7407
etime	-7408
iated	-7409
▁Fall	-7410
▁Stev	-7411
▁cool	-7412
▁fans	-7413
▁mere	-7414
▁mine	-7415
▁Hebdo	-7416
▁Stahl	-7417
▁bunch	-7418
▁theme	-7419
▁bitter	-7420
▁treaty	-7421
▁wisdom	-7422
▁equival	-7423
▁legitim	-7424
▁unfavor	-7425
terrorism	-7426
▁Columbia	-7427
▁Giuliani	-7428
▁interpret	-7429
▁capitalism	-7430
▁frustration	-7431
PD	-7432
rize	-7433
▁WAS	-7434
▁rif	-7435
ested	-7436
oster	-7437
owned	-7438
▁Book	-7439
▁chec	-7440
ounded	-7441
strong	-7442
▁Bible	-7443
▁alarm	-7444
▁eager	-7445
▁loans	-7446
▁owner	-7447
▁utter	-7448
ounding	-7449
▁Review	-7450
▁accord	-7451
▁driver	-7452
▁flying	-7453
▁massac	-7454
▁Latinos	-7455
▁blocked	-7456
▁drawing	-7457
President	-7458
▁Services	-7459
▁actively	-7460
▁constant	-7461
ifications	-7462
▁investors	-7463
▁nationally	-7464
▁exclusively	-7465
▁generations	-7466
▁prosecutors	-7467
▁temperament	-7468
▁Representatives	-7469
you	-7470
will	-7471
▁30,	-7472
▁Que	-7473
▁odd	-7474
ainty	-7475
ashes	-7476
incol	-7477
oween	-7478
▁Trib	-7479
▁plays	-7480
ressive	-7481
▁babies	-7482
▁batter	-7483
▁versus	-7484
▁enthusi	-7485
▁footage	-7486
▁ideolog	-7487
▁profits	-7488
▁Venezuel	-7489
▁ceremony	-7490
▁contrary	-7491
controlled	-7492
▁dominated	-7493
▁motivated	-7494
▁perceived	-7495
▁strongest	-7496
▁extremists	-7497
▁frustrated	-7498
▁initiative	-7499
▁referendum	-7500
den	-7501
▁CH	-7502
cher	-7503
▁Bay	-7504
▁Kar	-7505
cover	-7506
itals	-7507
▁Oper	-7508
▁calm	-7509
▁jour	-7510
▁lobb	-7511
incoln	-7512
▁entry	-7513
▁uncon	-7514
▁device	-7515
▁humans	-7516
▁island	-7517
▁strict	-7518
▁arrange	-7519
▁resulted	-7520
▁partisans	-7521
▁complaints	-7522
▁dramatically	-7523
dis	-7524
▁Id	-7525
edia	-7526
▁Lee	-7527
▁les	-7528
child	-7529
▁Koch	-7530
▁flaw	-7531
▁tiny	-7532
hattan	-7533
▁Print	-7534
▁adopt	-7535
▁panic	-7536
autiful	-7537
▁campus	-7538
▁poison	-7539
▁steady	-7540
▁unfold	-7541
▁urging	-7542
▁Lincoln	-7543
▁Stevens	-7544
▁declare	-7545
▁Oklahoma	-7546
▁accident	-7547
▁accurate	-7548
▁learning	-7549
▁philosoph	-7550
▁sufficient	-7551
▁recognition	-7552
gic	-7553
iac	-7554
oil	-7555
unk	-7556
news	-7557
▁300	-7558
▁Dut	-7559
▁rum	-7560
sters	-7561
usted	-7562
▁cops	-7563
▁deem	-7564
angers	-7565
income	-7566
orious	-7567
▁Peace	-7568
▁backl	-7569
▁camer	-7570
▁diagn	-7571
▁foods	-7572
itizens	-7573
▁Kansas	-7574
▁branch	-7575
▁incent	-7576
▁voices	-7577
▁Channel	-7578
▁Patriot	-7579
▁closest	-7580
▁teacher	-7581
▁occasion	-7582
▁declaring	-7583
▁struggled	-7584
▁ambassador	-7585
▁demographic	-7586
▁influential	-7587
▁confrontation	-7588
.]	-7589
DP	-7590
qq	-7591
▁$1.	-7592
▁500	-7593
▁Dun	-7594
▁atm	-7595
▁pal	-7596
miral	-7597
▁auth	-7598
▁irre	-7599
▁2010,	-7600
▁cells	-7601
▁vital	-7602
▁Morris	-7603
▁laptop	-7604
▁manage	-7605
▁switch	-7606
aturally	-7607
▁beating	-7608
▁militar	-7609
▁reveals	-7610
▁Hollande	-7611
▁universe	-7612
▁Halloween	-7613
▁columnist	-7614
▁estimates	-7615
▁listening	-7616
▁precisely	-7617
▁skeptical	-7618
▁electronic	-7619
▁manufacturing	-7620
70	-7621
TM	-7622
ey	-7623
One	-7624
Why	-7625
cor	-7626
pel	-7627
▁AF	-7628
icon	-7629
▁Tea	-7630
▁nut	-7631
chers	-7632
ropri	-7633
water	-7634
▁Next	-7635
▁epis	-7636
itudes	-7637
▁cable	-7638
▁mobil	-7639
lements	-7640
uations	-7641
▁absent	-7642
▁corner	-7643
▁rarely	-7644
▁serves	-7645
▁stakes	-7646
security	-7647
ximately	-7648
▁silence	-7649
▁walking	-7650
▁Islamist	-7651
▁dramatic	-7652
▁thorough	-7653
▁temporary	-7654
▁contenders	-7655
▁deportation	-7656
▁investigative	-7657
90	-7658
GE	-7659
Now	-7660
bal	-7661
dem	-7662
zer	-7663
▁Av	-7664
▁FO	-7665
acks	-7666
▁DHS	-7667
▁NPR	-7668
▁bol	-7669
▁bom	-7670
▁jur	-7671
Qaeda	-7672
roots	-7673
▁Gall	-7674
▁myth	-7675
▁pock	-7676
▁pump	-7677
▁teen	-7678
accept	-7679
▁decre	-7680
HINGTON	-7681
▁Should	-7682
▁circle	-7683
▁funded	-7684
▁neighb	-7685
▁scenes	-7686
▁united	-7687
▁charity	-7688
▁forcing	-7689
▁justify	-7690
▁strange	-7691
▁Investig	-7692
▁tomorrow	-7693
▁Manhattan	-7694
▁universal	-7695
▁operatives	-7696
▁reelection	-7697
▁relationships	-7698
gyn	-7699
okes	-7700
▁Est	-7701
▁Pres	-7702
▁dial	-7703
▁loan	-7704
▁rose	-7705
ailing	-7706
minute	-7707
worthy	-7708
▁2009,	-7709
▁Truth	-7710
Pacific	-7711
aration	-7712
▁Joseph	-7713
▁adjust	-7714
▁contra	-7715
▁firing	-7716
▁impose	-7717
▁unders	-7718
▁Patrick	-7719
▁appeals	-7720
▁located	-7721
▁reduced	-7722
▁torture	-7723
▁Brooklyn	-7724
▁Guardian	-7725
▁controls	-7726
▁stunning	-7727
▁appointed	-7728
▁exception	-7729
▁overthrow	-7730
▁Organization	-7731
▁intellectual	-7732
▁overwhelmingly	-7733
MF	-7734
PL	-7735
TV	-7736
Un	-7737
ato	-7738
cam	-7739
cut	-7740
lies	-7741
roit	-7742
uits	-7743
viol	-7744
lings	-7745
ritor	-7746
▁Camp	-7747
▁Tech	-7748
▁fool	-7749
thirds	-7750
▁1,000	-7751
▁Staff	-7752
▁craft	-7753
achment	-7754
ography	-7755
▁Howard	-7756
▁screen	-7757
▁suburb	-7758
▁embassy	-7759
▁seconds	-7760
▁weather	-7761
▁emerging	-7762
▁payments	-7763
▁Education	-7764
▁expanding	-7765
▁unpopular	-7766
▁Bernardino	-7767
▁accomplish	-7768
▁accountable	-7769
▁willingness	-7770
IG	-7771
iop	-7772
sen	-7773
▁44	-7774
cend	-7775
ctic	-7776
ylum	-7777
iable	-7778
▁copy	-7779
nesota	-7780
▁2011.	-7781
▁Check	-7782
▁elder	-7783
▁goods	-7784
▁Harris	-7785
▁formal	-7786
▁formed	-7787
▁useful	-7788
▁window	-7789
▁History	-7790
▁counted	-7791
▁fighter	-7792
▁grounds	-7793
▁privacy	-7794
▁secrets	-7795
▁bankrupt	-7796
▁defeated	-7797
▁Hispanics	-7798
▁Relations	-7799
▁diversity	-7800
▁perfectly	-7801
▁sentiment	-7802
▁disclosure	-7803
▁organizing	-7804
ctr	-7805
was	-7806
▁32	-7807
▁Si	-7808
hent	-7809
iasm	-7810
ints	-7811
math	-7812
▁fel	-7813
▁mad	-7814
▁tap	-7815
▁bear	-7816
▁earn	-7817
▁kick	-7818
▁olig	-7819
▁ramp	-7820
▁rely	-7821
▁yell	-7822
asters	-7823
gender	-7824
▁marks	-7825
▁rebel	-7826
▁Conway	-7827
▁Hitler	-7828
▁excuse	-7829
▁hacked	-7830
▁thrown	-7831
▁Stephen	-7832
▁endless	-7833
▁trigger	-7834
▁profound	-7835
▁purchase	-7836
▁assistant	-7837
▁describes	-7838
▁WASHINGTON	-7839
▁aggression	-7840
▁unexpected	-7841
▁historically	-7842
CE	-7843
UT	-7844
na	-7845
ym	-7846
spe	-7847
▁Ha	-7848
Well	-7849
ownt	-7850
they	-7851
west	-7852
▁jet	-7853
icaid	-7854
otten	-7855
▁Much	-7856
▁Vide	-7857
▁rand	-7858
iciary	-7859
▁Maine	-7860
▁occas	-7861
▁Holder	-7862
andowski	-7863
▁earning	-7864
▁hacking	-7865
▁reverse	-7866
▁Francisco	-7867
▁Minnesota	-7868
▁headlines	-7869
▁comparison	-7870
▁millennials	-7871
DC	-7872
aph	-7873
▁36	-7874
▁49	-7875
▁fr	-7876
otal	-7877
▁$20	-7878
▁DNA	-7879
▁Pri	-7880
▁Sum	-7881
▁Coll	-7882
▁lock	-7883
▁pupp	-7884
▁writ	-7885
Israel	-7886
assion	-7887
erving	-7888
▁pitch	-7889
leading	-7890
ologist	-7891
ultural	-7892
▁Silver	-7893
▁System	-7894
▁Voters	-7895
▁emerge	-7896
▁planes	-7897
▁slowly	-7898
▁square	-7899
otection	-7900
▁operate	-7901
▁choosing	-7902
▁murdered	-7903
▁prompted	-7904
▁amendment	-7905
▁regulation	-7906
▁settlement	-7907
Ph	-7908
ez	-7909
now	-7910
Some	-7911
▁dub	-7912
anium	-7913
▁	-7914
e	-7915
t	-7916
a	-7917
o	-7918
i	-7919
n	-7920
s	-7921
r	-7922
h	-7923
l	-7924
d	-7925
c	-7926
u	-7927
m	-7928
p	-7929
g	-7930
f	-7931
y	-7932
w	-7933
b	-7934
.	-7935
,	-7936
v	-7937
k	-7938
T	-7939
S	-7940
I	-7941
C	-7942
A	-7943
’	-7944
-	-7945
B	-7946
R	-7947
0	-7948
P	-7949
H	-7950
M	-7951
x	-7952
W	-7953
"	-7954
D	-7955
N	-7956
O	-7957
1	-7958
“	-7959
”	-7960
'	-7961
F	-7962
2	-7963
j	-7964
E	-7965
z	-7966
U	-7967
G	-7968
L	-7969
J	-7970
q	-7971
:	-7972
)	-7973
(	-7974
K	-7975
5	-7976
—	-7977
9	-7978
6	-7979
3	-7980
Y	-7981
4	-7982
?	-7983
V	-7984
8	-7985
7	-7986
–	-7987
/	-7988
;	-7989
$	-7990
!	-7991
]	-7992
[	-7993
‘	-7994
%	-7995
Z	-7996
Q	-7997
@	-7998
	-7999
